{
  "version": "1.0",
  "truncation": null,
  "padding": null,
  "added_tokens": [
    {
      "id": 0,
      "content": "<pad>",
      "single_word": false,
      "lstrip": false,
      "rstrip": false,
      "normalized": false,
      "special": true
    },
    {
      "id": 1,
      "content": "<unk>",
      "single_word": false,
      "lstrip": false,
      "rstrip": false,
      "normalized": false,
      "special": true
    },
    {
      "id": 2,
      "content": "<s>",
      "single_word": false,
      "lstrip": false,
      "rstrip": false,
      "normalized": false,
      "special": true
    },
    {
      "id": 3,
      "content": "</s>",
      "single_word": false,
      "lstrip": false,
      "rstrip": false,
      "normalized": false,
      "special": true
    }
  ],
  "normalizer": null,
  "pre_tokenizer": null,
  "post_processor": null,
  "decoder": null,
  "model": {
    "type": "BPE",
    "dropout": null,
    "unk_token": null,
    "continuing_subword_prefix": null,
    "end_of_word_suffix": null,
    "fuse_unk": false,
    "byte_fallback": false,
    "ignore_merges": false,
    "vocab": {
      "<pad>": 0,
      "<unk>": 1,
      "<s>": 2,
      "</s>": 3,
      "\u0002": 4,
      "\u0003": 5,
      "\b": 6,
      "\t": 7,
      "\n": 8,
      "\u000b": 9,
      "\f": 10,
      "\r": 11,
      "\u000f": 12,
      "\u0010": 13,
      "\u0011": 14,
      "\u0012": 15,
      "\u0013": 16,
      "\u0014": 17,
      "\u0018": 18,
      "\u0019": 19,
      "\u001a": 20,
      "\u001b": 21,
      "\u001c": 22,
      "\u001d": 23,
      " ": 24,
      "!": 25,
      "\"": 26,
      "#": 27,
      "$": 28,
      "%": 29,
      "&": 30,
      "'": 31,
      "(": 32,
      ")": 33,
      "*": 34,
      "+": 35,
      ",": 36,
      "-": 37,
      ".": 38,
      "/": 39,
      "0": 40,
      "1": 41,
      "2": 42,
      "3": 43,
      "4": 44,
      "5": 45,
      "6": 46,
      "7": 47,
      "8": 48,
      "9": 49,
      ":": 50,
      ";": 51,
      "<": 52,
      "=": 53,
      ">": 54,
      "?": 55,
      "@": 56,
      "A": 57,
      "B": 58,
      "C": 59,
      "D": 60,
      "E": 61,
      "F": 62,
      "G": 63,
      "H": 64,
      "I": 65,
      "J": 66,
      "K": 67,
      "L": 68,
      "M": 69,
      "N": 70,
      "O": 71,
      "P": 72,
      "Q": 73,
      "R": 74,
      "S": 75,
      "T": 76,
      "U": 77,
      "V": 78,
      "W": 79,
      "X": 80,
      "Y": 81,
      "Z": 82,
      "[": 83,
      "\\": 84,
      "]": 85,
      "^": 86,
      "_": 87,
      "`": 88,
      "a": 89,
      "b": 90,
      "c": 91,
      "d": 92,
      "e": 93,
      "f": 94,
      "g": 95,
      "h": 96,
      "i": 97,
      "j": 98,
      "k": 99,
      "l": 100,
      "m": 101,
      "n": 102,
      "o": 103,
      "p": 104,
      "q": 105,
      "r": 106,
      "s": 107,
      "t": 108,
      "u": 109,
      "v": 110,
      "w": 111,
      "x": 112,
      "y": 113,
      "z": 114,
      "{": 115,
      "|": 116,
      "}": 117,
      "~": 118,
      "": 119,
      "": 120,
      "": 121,
      "": 122,
      "": 123,
      "": 124,
      "": 125,
      "": 126,
      "": 127,
      "": 128,
      "": 129,
      "": 130,
      "": 131,
      "": 132,
      "": 133,
      " ": 134,
      "¡": 135,
      "¢": 136,
      "£": 137,
      "¤": 138,
      "¥": 139,
      "¦": 140,
      "§": 141,
      "¨": 142,
      "©": 143,
      "ª": 144,
      "«": 145,
      "¬": 146,
      "­": 147,
      "®": 148,
      "¯": 149,
      "°": 150,
      "±": 151,
      "²": 152,
      "³": 153,
      "´": 154,
      "µ": 155,
      "¶": 156,
      "·": 157,
      "¸": 158,
      "¹": 159,
      "º": 160,
      "»": 161,
      "¼": 162,
      "½": 163,
      "¾": 164,
      "¿": 165,
      "À": 166,
      "Á": 167,
      "Â": 168,
      "Ã": 169,
      "Ä": 170,
      "Å": 171,
      "Æ": 172,
      "Ç": 173,
      "È": 174,
      "É": 175,
      "Ê": 176,
      "Ë": 177,
      "Ì": 178,
      "Í": 179,
      "Î": 180,
      "Ï": 181,
      "Ð": 182,
      "Ñ": 183,
      "Ò": 184,
      "Ó": 185,
      "Ô": 186,
      "Õ": 187,
      "Ö": 188,
      "×": 189,
      "Ø": 190,
      "Ù": 191,
      "Ú": 192,
      "Û": 193,
      "Ü": 194,
      "Ý": 195,
      "Þ": 196,
      "ß": 197,
      "à": 198,
      "á": 199,
      "â": 200,
      "ã": 201,
      "ä": 202,
      "å": 203,
      "æ": 204,
      "ç": 205,
      "è": 206,
      "é": 207,
      "ê": 208,
      "ë": 209,
      "ì": 210,
      "í": 211,
      "î": 212,
      "ï": 213,
      "ð": 214,
      "ñ": 215,
      "ò": 216,
      "ó": 217,
      "ô": 218,
      "õ": 219,
      "ö": 220,
      "÷": 221,
      "ø": 222,
      "ù": 223,
      "ú": 224,
      "û": 225,
      "ü": 226,
      "ý": 227,
      "þ": 228,
      "ÿ": 229,
      "Ā": 230,
      "ā": 231,
      "Ă": 232,
      "ă": 233,
      "Ą": 234,
      "ą": 235,
      "Ć": 236,
      "ć": 237,
      "Ĉ": 238,
      "ĉ": 239,
      "Ċ": 240,
      "ċ": 241,
      "Č": 242,
      "č": 243,
      "Ď": 244,
      "ď": 245,
      "Đ": 246,
      "đ": 247,
      "Ē": 248,
      "ē": 249,
      "Ĕ": 250,
      "ĕ": 251,
      "Ė": 252,
      "ė": 253,
      "Ę": 254,
      "ę": 255,
      "Ě": 256,
      "ě": 257,
      "Ĝ": 258,
      "ĝ": 259,
      "Ğ": 260,
      "ğ": 261,
      "Ġ": 262,
      "ġ": 263,
      "Ģ": 264,
      "ģ": 265,
      "Ĥ": 266,
      "ĥ": 267,
      "Ħ": 268,
      "ħ": 269,
      "Ĩ": 270,
      "ĩ": 271,
      "Ī": 272,
      "ī": 273,
      "Ĭ": 274,
      "ĭ": 275,
      "Į": 276,
      "į": 277,
      "İ": 278,
      "ı": 279,
      "Ĳ": 280,
      "ĳ": 281,
      "Ĵ": 282,
      "ĵ": 283,
      "Ķ": 284,
      "ķ": 285,
      "ĸ": 286,
      "Ĺ": 287,
      "ĺ": 288,
      "Ļ": 289,
      "ļ": 290,
      "Ľ": 291,
      "ľ": 292,
      "Ŀ": 293,
      "ŀ": 294,
      "Ł": 295,
      "ł": 296,
      "Ń": 297,
      "ń": 298,
      "ň": 299,
      "ŋ": 300,
      "Ō": 301,
      "ō": 302,
      "ő": 303,
      "Œ": 304,
      "œ": 305,
      "ŕ": 306,
      "ř": 307,
      "Ś": 308,
      "ś": 309,
      "Ş": 310,
      "ş": 311,
      "Š": 312,
      "š": 313,
      "ţ": 314,
      "ť": 315,
      "ũ": 316,
      "ū": 317,
      "ŭ": 318,
      "ů": 319,
      "ų": 320,
      "ŵ": 321,
      "Ŷ": 322,
      "ŷ": 323,
      "Ÿ": 324,
      "ź": 325,
      "Ż": 326,
      "ż": 327,
      "Ž": 328,
      "ž": 329,
      "ſ": 330,
      "Ɛ": 331,
      "ƒ": 332,
      "ơ": 333,
      "ư": 334,
      "ǀ": 335,
      "ǎ": 336,
      "ǐ": 337,
      "ǒ": 338,
      "ǔ": 339,
      "ǖ": 340,
      "ǘ": 341,
      "ǚ": 342,
      "ǜ": 343,
      "ǝ": 344,
      "ǣ": 345,
      "ǫ": 346,
      "ǵ": 347,
      "ǹ": 348,
      "ș": 349,
      "ț": 350,
      "Ȝ": 351,
      "ȝ": 352,
      "ɐ": 353,
      "ɑ": 354,
      "ɒ": 355,
      "ɔ": 356,
      "ɕ": 357,
      "ə": 358,
      "ɛ": 359,
      "ɜ": 360,
      "ɡ": 361,
      "ɥ": 362,
      "ɦ": 363,
      "ɪ": 364,
      "ɲ": 365,
      "ɹ": 366,
      "ɻ": 367,
      "ɾ": 368,
      "ʀ": 369,
      "ʁ": 370,
      "ʂ": 371,
      "ʃ": 372,
      "ʇ": 373,
      "ʈ": 374,
      "ʉ": 375,
      "ʊ": 376,
      "ʌ": 377,
      "ʏ": 378,
      "ʒ": 379,
      "ʔ": 380,
      "ʕ": 381,
      "ʚ": 382,
      "ʤ": 383,
      "ʧ": 384,
      "ʰ": 385,
      "ʱ": 386,
      "ʲ": 387,
      "ʹ": 388,
      "ʻ": 389,
      "ʼ": 390,
      "ʾ": 391,
      "ʿ": 392,
      "ˆ": 393,
      "ˇ": 394,
      "ˈ": 395,
      "ˋ": 396,
      "ˌ": 397,
      "ː": 398,
      "˘": 399,
      "˙": 400,
      "˚": 401,
      "˜": 402,
      "˥": 403,
      "˩": 404,
      "̀": 405,
      "́": 406,
      "̂": 407,
      "̃": 408,
      "̄": 409,
      "̅": 410,
      "̇": 411,
      "̈": 412,
      "̦": 413,
      "̨": 414,
      "̩": 415,
      "̪": 416,
      "̬": 417,
      "̲": 418,
      "͡": 419,
      "΅": 420,
      "Ύ": 421,
      "Α": 422,
      "Γ": 423,
      "Δ": 424,
      "Ε": 425,
      "Η": 426,
      "Θ": 427,
      "Κ": 428,
      "Λ": 429,
      "Μ": 430,
      "Ν": 431,
      "Ξ": 432,
      "Ο": 433,
      "Π": 434,
      "Ρ": 435,
      "Σ": 436,
      "Τ": 437,
      "Φ": 438,
      "Ψ": 439,
      "Ω": 440,
      "ά": 441,
      "έ": 442,
      "ή": 443,
      "ί": 444,
      "ΰ": 445,
      "α": 446,
      "β": 447,
      "γ": 448,
      "δ": 449,
      "ε": 450,
      "ζ": 451,
      "η": 452,
      "θ": 453,
      "ι": 454,
      "κ": 455,
      "λ": 456,
      "μ": 457,
      "ν": 458,
      "ξ": 459,
      "ο": 460,
      "π": 461,
      "ρ": 462,
      "ς": 463,
      "σ": 464,
      "τ": 465,
      "υ": 466,
      "φ": 467,
      "χ": 468,
      "ψ": 469,
      "ω": 470,
      "ό": 471,
      "ύ": 472,
      "ώ": 473,
      "ϕ": 474,
      "ϵ": 475,
      "Ђ": 476,
      "І": 477,
      "А": 478,
      "Б": 479,
      "В": 480,
      "Г": 481,
      "Д": 482,
      "Е": 483,
      "Ж": 484,
      "З": 485,
      "И": 486,
      "Й": 487,
      "К": 488,
      "Л": 489,
      "М": 490,
      "Н": 491,
      "О": 492,
      "П": 493,
      "Р": 494,
      "С": 495,
      "Т": 496,
      "У": 497,
      "Ф": 498,
      "Х": 499,
      "Ц": 500,
      "Ч": 501,
      "Ш": 502,
      "Ы": 503,
      "Э": 504,
      "Ю": 505,
      "Я": 506,
      "а": 507,
      "б": 508,
      "в": 509,
      "г": 510,
      "д": 511,
      "е": 512,
      "ж": 513,
      "з": 514,
      "и": 515,
      "й": 516,
      "к": 517,
      "л": 518,
      "м": 519,
      "н": 520,
      "о": 521,
      "п": 522,
      "р": 523,
      "с": 524,
      "т": 525,
      "у": 526,
      "ф": 527,
      "х": 528,
      "ц": 529,
      "ч": 530,
      "ш": 531,
      "щ": 532,
      "ъ": 533,
      "ы": 534,
      "ь": 535,
      "э": 536,
      "ю": 537,
      "я": 538,
      "ё": 539,
      "є": 540,
      "ѕ": 541,
      "і": 542,
      "ї": 543,
      "њ": 544,
      "җ": 545,
      "ӓ": 546,
      "Ә": 547,
      "ә": 548,
      "ԛ": 549,
      "Ե": 550,
      "Ի": 551,
      "Կ": 552,
      "Մ": 553,
      "ա": 554,
      "բ": 555,
      "ե": 556,
      "ը": 557,
      "թ": 558,
      "ժ": 559,
      "ի": 560,
      "ծ": 561,
      "կ": 562,
      "ղ": 563,
      "մ": 564,
      "յ": 565,
      "ն": 566,
      "շ": 567,
      "ո": 568,
      "ս": 569,
      "տ": 570,
      "ր": 571,
      "ւ": 572,
      "ְ": 573,
      "ֱ": 574,
      "ֲ": 575,
      "ִ": 576,
      "ֵ": 577,
      "ֶ": 578,
      "ַ": 579,
      "ָ": 580,
      "ֹ": 581,
      "ּ": 582,
      "־": 583,
      "ׁ": 584,
      "ׂ": 585,
      "א": 586,
      "ב": 587,
      "ג": 588,
      "ד": 589,
      "ה": 590,
      "ו": 591,
      "ז": 592,
      "ח": 593,
      "ט": 594,
      "י": 595,
      "ך": 596,
      "כ": 597,
      "ל": 598,
      "ם": 599,
      "מ": 600,
      "ן": 601,
      "נ": 602,
      "ס": 603,
      "ע": 604,
      "ף": 605,
      "פ": 606,
      "ץ": 607,
      "צ": 608,
      "ק": 609,
      "ר": 610,
      "ש": 611,
      "ת": 612,
      "׳": 613,
      "״": 614,
      "،": 615,
      "؛": 616,
      "؟": 617,
      "ء": 618,
      "آ": 619,
      "أ": 620,
      "ؤ": 621,
      "إ": 622,
      "ئ": 623,
      "ا": 624,
      "ب": 625,
      "ة": 626,
      "ت": 627,
      "ث": 628,
      "ج": 629,
      "ح": 630,
      "خ": 631,
      "د": 632,
      "ذ": 633,
      "ر": 634,
      "ز": 635,
      "س": 636,
      "ش": 637,
      "ص": 638,
      "ض": 639,
      "ط": 640,
      "ظ": 641,
      "ع": 642,
      "غ": 643,
      "ف": 644,
      "ق": 645,
      "ك": 646,
      "ل": 647,
      "م": 648,
      "ن": 649,
      "ه": 650,
      "و": 651,
      "ى": 652,
      "ي": 653,
      "ً": 654,
      "ٌ": 655,
      "َ": 656,
      "ُ": 657,
      "ِ": 658,
      "ّ": 659,
      "ْ": 660,
      "١": 661,
      "٩": 662,
      "پ": 663,
      "چ": 664,
      "ک": 665,
      "گ": 666,
      "ں": 667,
      "ھ": 668,
      "ی": 669,
      "ے": 670,
      "ە": 671,
      "۶": 672,
      "ँ": 673,
      "ं": 674,
      "ः": 675,
      "अ": 676,
      "आ": 677,
      "इ": 678,
      "ई": 679,
      "उ": 680,
      "ऊ": 681,
      "ऋ": 682,
      "ए": 683,
      "ऐ": 684,
      "ऑ": 685,
      "ओ": 686,
      "औ": 687,
      "क": 688,
      "ख": 689,
      "ग": 690,
      "घ": 691,
      "ङ": 692,
      "च": 693,
      "छ": 694,
      "ज": 695,
      "झ": 696,
      "ञ": 697,
      "ट": 698,
      "ठ": 699,
      "ड": 700,
      "ढ": 701,
      "ण": 702,
      "त": 703,
      "थ": 704,
      "द": 705,
      "ध": 706,
      "न": 707,
      "प": 708,
      "फ": 709,
      "ब": 710,
      "भ": 711,
      "म": 712,
      "य": 713,
      "र": 714,
      "ल": 715,
      "ळ": 716,
      "व": 717,
      "श": 718,
      "ष": 719,
      "स": 720,
      "ह": 721,
      "़": 722,
      "ा": 723,
      "ि": 724,
      "ी": 725,
      "ु": 726,
      "ू": 727,
      "ृ": 728,
      "े": 729,
      "ै": 730,
      "ॉ": 731,
      "ो": 732,
      "ौ": 733,
      "्": 734,
      "ड़": 735,
      "फ़": 736,
      "।": 737,
      "আ": 738,
      "ই": 739,
      "ঋ": 740,
      "এ": 741,
      "ক": 742,
      "খ": 743,
      "গ": 744,
      "চ": 745,
      "ছ": 746,
      "জ": 747,
      "ট": 748,
      "ড": 749,
      "ণ": 750,
      "ত": 751,
      "দ": 752,
      "ন": 753,
      "ব": 754,
      "ভ": 755,
      "ম": 756,
      "য": 757,
      "র": 758,
      "ল": 759,
      "শ": 760,
      "ষ": 761,
      "স": 762,
      "়": 763,
      "া": 764,
      "ি": 765,
      "ী": 766,
      "ু": 767,
      "ৃ": 768,
      "ে": 769,
      "ো": 770,
      "্": 771,
      "ਂ": 772,
      "ਅ": 773,
      "ਇ": 774,
      "ਕ": 775,
      "ਡ": 776,
      "ਤ": 777,
      "ਦ": 778,
      "ਨ": 779,
      "ਪ": 780,
      "ਰ": 781,
      "ਲ": 782,
      "ਸ": 783,
      "ਹ": 784,
      "ਾ": 785,
      "ਿ": 786,
      "ੀ": 787,
      "ੁ": 788,
      "ੂ": 789,
      "ੈ": 790,
      "੍": 791,
      "ੜ": 792,
      "੦": 793,
      "ੰ": 794,
      "ં": 795,
      "અ": 796,
      "આ": 797,
      "ક": 798,
      "ખ": 799,
      "ગ": 800,
      "જ": 801,
      "ડ": 802,
      "ત": 803,
      "દ": 804,
      "ધ": 805,
      "ન": 806,
      "પ": 807,
      "બ": 808,
      "ભ": 809,
      "મ": 810,
      "ય": 811,
      "ર": 812,
      "લ": 813,
      "ળ": 814,
      "વ": 815,
      "સ": 816,
      "ા": 817,
      "ી": 818,
      "ુ": 819,
      "ે": 820,
      "ો": 821,
      "્": 822,
      "ୀ": 823,
      "அ": 824,
      "ஆ": 825,
      "இ": 826,
      "உ": 827,
      "எ": 828,
      "ஏ": 829,
      "ஒ": 830,
      "ஓ": 831,
      "க": 832,
      "ங": 833,
      "ச": 834,
      "ஜ": 835,
      "ட": 836,
      "ண": 837,
      "த": 838,
      "ந": 839,
      "ன": 840,
      "ப": 841,
      "ம": 842,
      "ய": 843,
      "ர": 844,
      "ற": 845,
      "ல": 846,
      "ள": 847,
      "ழ": 848,
      "வ": 849,
      "ா": 850,
      "ி": 851,
      "ீ": 852,
      "ு": 853,
      "ூ": 854,
      "ெ": 855,
      "ே": 856,
      "ை": 857,
      "ொ": 858,
      "ோ": 859,
      "்": 860,
      "అ": 861,
      "క": 862,
      "చ": 863,
      "జ": 864,
      "డ": 865,
      "త": 866,
      "న": 867,
      "ప": 868,
      "మ": 869,
      "య": 870,
      "ర": 871,
      "ల": 872,
      "వ": 873,
      "స": 874,
      "ా": 875,
      "ి": 876,
      "ీ": 877,
      "ు": 878,
      "ొ": 879,
      "్": 880,
      "ಂ": 881,
      "ಅ": 882,
      "ಆ": 883,
      "ಇ": 884,
      "ಈ": 885,
      "ಉ": 886,
      "ಊ": 887,
      "ಋ": 888,
      "ಎ": 889,
      "ಏ": 890,
      "ಐ": 891,
      "ಒ": 892,
      "ಓ": 893,
      "ಔ": 894,
      "ಕ": 895,
      "ಖ": 896,
      "ಗ": 897,
      "ಘ": 898,
      "ಙ": 899,
      "ಚ": 900,
      "ಛ": 901,
      "ಜ": 902,
      "ಝ": 903,
      "ಞ": 904,
      "ಟ": 905,
      "ಠ": 906,
      "ಡ": 907,
      "ಢ": 908,
      "ಣ": 909,
      "ತ": 910,
      "ಥ": 911,
      "ದ": 912,
      "ಧ": 913,
      "ನ": 914,
      "ಪ": 915,
      "ಫ": 916,
      "ಬ": 917,
      "ಭ": 918,
      "ಮ": 919,
      "ಯ": 920,
      "ರ": 921,
      "ಲ": 922,
      "ಳ": 923,
      "ವ": 924,
      "ಶ": 925,
      "ಷ": 926,
      "ಸ": 927,
      "ಹ": 928,
      "ಾ": 929,
      "ಿ": 930,
      "ೀ": 931,
      "ು": 932,
      "ೃ": 933,
      "ೆ": 934,
      "ೇ": 935,
      "್": 936,
      "ೠ": 937,
      "ം": 938,
      "ക": 939,
      "ട": 940,
      "ണ": 941,
      "ന": 942,
      "പ": 943,
      "മ": 944,
      "യ": 945,
      "ര": 946,
      "ല": 947,
      "ള": 948,
      "വ": 949,
      "ാ": 950,
      "ി": 951,
      "ു": 952,
      "്": 953,
      "൵": 954,
      "൶": 955,
      "ർ": 956,
      "ก": 957,
      "ข": 958,
      "ค": 959,
      "ง": 960,
      "จ": 961,
      "ช": 962,
      "ซ": 963,
      "ญ": 964,
      "ณ": 965,
      "ด": 966,
      "ต": 967,
      "ถ": 968,
      "ท": 969,
      "ธ": 970,
      "น": 971,
      "บ": 972,
      "ป": 973,
      "ผ": 974,
      "พ": 975,
      "ฟ": 976,
      "ภ": 977,
      "ม": 978,
      "ย": 979,
      "ร": 980,
      "ฤ": 981,
      "ล": 982,
      "ว": 983,
      "ศ": 984,
      "ษ": 985,
      "ส": 986,
      "ห": 987,
      "อ": 988,
      "ฯ": 989,
      "ะ": 990,
      "ั": 991,
      "า": 992,
      "ำ": 993,
      "ิ": 994,
      "ี": 995,
      "ึ": 996,
      "ื": 997,
      "ุ": 998,
      "ู": 999,
      "ฺ": 1000,
      "เ": 1001,
      "แ": 1002,
      "โ": 1003,
      "ใ": 1004,
      "ไ": 1005,
      "ๆ": 1006,
      "็": 1007,
      "่": 1008,
      "้": 1009,
      "๋": 1010,
      "์": 1011,
      "๏": 1012,
      "๑": 1013,
      "ກ": 1014,
      "ຂ": 1015,
      "ງ": 1016,
      "ຊ": 1017,
      "ດ": 1018,
      "ທ": 1019,
      "ນ": 1020,
      "ບ": 1021,
      "ພ": 1022,
      "ມ": 1023,
      "ຢ": 1024,
      "ລ": 1025,
      "ວ": 1026,
      "ສ": 1027,
      "ອ": 1028,
      "ະ": 1029,
      "ັ": 1030,
      "າ": 1031,
      "ິ": 1032,
      "ີ": 1033,
      "ື": 1034,
      "ຸ": 1035,
      "ົ": 1036,
      "ເ": 1037,
      "່": 1038,
      "້": 1039,
      "က": 1040,
      "င": 1041,
      "တ": 1042,
      "န": 1043,
      "ပ": 1044,
      "မ": 1045,
      "ယ": 1046,
      "လ": 1047,
      "ာ": 1048,
      "ေ": 1049,
      "ဲ": 1050,
      "့": 1051,
      "း": 1052,
      "္": 1053,
      "ၤ": 1054,
      "ᐄ": 1055,
      "ᐤ": 1056,
      "ᓃ": 1057,
      "ᚠ": 1058,
      "ᚢ": 1059,
      "ᚨ": 1060,
      "ᚱ": 1061,
      "ᛁ": 1062,
      "ᛏ": 1063,
      "ᛖ": 1064,
      "ក": 1065,
      "ខ": 1066,
      "គ": 1067,
      "ឃ": 1068,
      "ង": 1069,
      "ច": 1070,
      "ឆ": 1071,
      "ជ": 1072,
      "ញ": 1073,
      "ដ": 1074,
      "ឋ": 1075,
      "ឌ": 1076,
      "ឍ": 1077,
      "ណ": 1078,
      "ត": 1079,
      "ថ": 1080,
      "ទ": 1081,
      "ធ": 1082,
      "ន": 1083,
      "ប": 1084,
      "ផ": 1085,
      "ព": 1086,
      "ភ": 1087,
      "ម": 1088,
      "យ": 1089,
      "រ": 1090,
      "ល": 1091,
      "វ": 1092,
      "ស": 1093,
      "ហ": 1094,
      "ឡ": 1095,
      "អ": 1096,
      "ឥ": 1097,
      "ឱ": 1098,
      "ឲ": 1099,
      "ា": 1100,
      "ិ": 1101,
      "ី": 1102,
      "ឹ": 1103,
      "ុ": 1104,
      "ូ": 1105,
      "ួ": 1106,
      "ើ": 1107,
      "ៀ": 1108,
      "េ": 1109,
      "ែ": 1110,
      "ៃ": 1111,
      "ោ": 1112,
      "ៅ": 1113,
      "ំ": 1114,
      "ះ": 1115,
      "ៈ": 1116,
      "់": 1117,
      "៌": 1118,
      "៍": 1119,
      "៏": 1120,
      "័": 1121,
      "្": 1122,
      "។": 1123,
      "ᴗ": 1124,
      "ᴥ": 1125,
      "ᴮ": 1126,
      "ᴱ": 1127,
      "ᵇ": 1128,
      "ᵉ": 1129,
      "ᵢ": 1130,
      "ḍ": 1131,
      "Ḥ": 1132,
      "ḥ": 1133,
      "ḷ": 1134,
      "ṅ": 1135,
      "ṇ": 1136,
      "ṛ": 1137,
      "ṝ": 1138,
      "ṣ": 1139,
      "ṭ": 1140,
      "ẓ": 1141,
      "ạ": 1142,
      "ả": 1143,
      "ấ": 1144,
      "ầ": 1145,
      "ẩ": 1146,
      "ẫ": 1147,
      "ậ": 1148,
      "ắ": 1149,
      "ằ": 1150,
      "ẵ": 1151,
      "ặ": 1152,
      "ẹ": 1153,
      "ẻ": 1154,
      "ẽ": 1155,
      "ế": 1156,
      "ề": 1157,
      "ể": 1158,
      "ễ": 1159,
      "ệ": 1160,
      "ỉ": 1161,
      "ị": 1162,
      "ọ": 1163,
      "ỏ": 1164,
      "ố": 1165,
      "ồ": 1166,
      "ổ": 1167,
      "ỗ": 1168,
      "ộ": 1169,
      "ớ": 1170,
      "ờ": 1171,
      "ở": 1172,
      "ợ": 1173,
      "ụ": 1174,
      "ủ": 1175,
      "ứ": 1176,
      "ừ": 1177,
      "ử": 1178,
      "ữ": 1179,
      "ự": 1180,
      "ỹ": 1181,
      "ἀ": 1182,
      "Ἀ": 1183,
      "ἐ": 1184,
      "Ἑ": 1185,
      "ἡ": 1186,
      "ἰ": 1187,
      "ἱ": 1188,
      "Ἰ": 1189,
      "ὄ": 1190,
      "ὐ": 1191,
      "ὗ": 1192,
      "ὰ": 1193,
      "ὲ": 1194,
      "ὴ": 1195,
      "ὶ": 1196,
      "ὸ": 1197,
      "ὺ": 1198,
      "ῖ": 1199,
      "ῦ": 1200,
      "ῶ": 1201,
      " ": 1202,
      " ": 1203,
      " ": 1204,
      " ": 1205,
      " ": 1206,
      "​": 1207,
      "‌": 1208,
      "‍": 1209,
      "‎": 1210,
      "‐": 1211,
      "‑": 1212,
      "–": 1213,
      "—": 1214,
      "―": 1215,
      "‘": 1216,
      "’": 1217,
      "‚": 1218,
      "“": 1219,
      "”": 1220,
      "„": 1221,
      "†": 1222,
      "‡": 1223,
      "•": 1224,
      "…": 1225,
      "‧": 1226,
      " ": 1227,
      "‪": 1228,
      "‬": 1229,
      " ": 1230,
      "‰": 1231,
      "′": 1232,
      "″": 1233,
      "‹": 1234,
      "›": 1235,
      "※": 1236,
      "‽": 1237,
      "‿": 1238,
      "⁄": 1239,
      "⁠": 1240,
      "⁡": 1241,
      "⁰": 1242,
      "⁳": 1243,
      "⁴": 1244,
      "⁵": 1245,
      "⁶": 1246,
      "⁷": 1247,
      "⁸": 1248,
      "⁹": 1249,
      "⁺": 1250,
      "⁻": 1251,
      "⁽": 1252,
      "⁾": 1253,
      "ⁿ": 1254,
      "₀": 1255,
      "₁": 1256,
      "₂": 1257,
      "₃": 1258,
      "₄": 1259,
      "₆": 1260,
      "₇": 1261,
      "₈": 1262,
      "₊": 1263,
      "ₒ": 1264,
      "₦": 1265,
      "€": 1266,
      "₹": 1267,
      "⃣": 1268,
      "℃": 1269,
      "℉": 1270,
      "ℏ": 1271,
      "№": 1272,
      "℗": 1273,
      "ℝ": 1274,
      "℠": 1275,
      "™": 1276,
      "⅓": 1277,
      "⅔": 1278,
      "⅖": 1279,
      "Ⅰ": 1280,
      "Ⅱ": 1281,
      "Ⅲ": 1282,
      "Ⅳ": 1283,
      "Ⅴ": 1284,
      "Ⅵ": 1285,
      "Ⅶ": 1286,
      "Ⅷ": 1287,
      "Ⅹ": 1288,
      "Ↄ": 1289,
      "←": 1290,
      "↑": 1291,
      "→": 1292,
      "↓": 1293,
      "↔": 1294,
      "↖": 1295,
      "↦": 1296,
      "⇌": 1297,
      "⇒": 1298,
      "⇔": 1299,
      "∀": 1300,
      "∂": 1301,
      "∃": 1302,
      "∅": 1303,
      "∆": 1304,
      "∇": 1305,
      "∈": 1306,
      "∏": 1307,
      "∑": 1308,
      "−": 1309,
      "∓": 1310,
      "∖": 1311,
      "∘": 1312,
      "∙": 1313,
      "√": 1314,
      "∝": 1315,
      "∞": 1316,
      "∠": 1317,
      "∣": 1318,
      "∥": 1319,
      "∧": 1320,
      "∨": 1321,
      "∩": 1322,
      "∪": 1323,
      "∫": 1324,
      "∮": 1325,
      "∴": 1326,
      "∶": 1327,
      "∼": 1328,
      "≈": 1329,
      "≠": 1330,
      "≡": 1331,
      "≤": 1332,
      "≥": 1333,
      "≧": 1334,
      "⊆": 1335,
      "⊕": 1336,
      "⊢": 1337,
      "⊥": 1338,
      "⋅": 1339,
      "⋈": 1340,
      "⋯": 1341,
      "⌈": 1342,
      "⌉": 1343,
      "⌊": 1344,
      "⌋": 1345,
      "⌚": 1346,
      "⌛": 1347,
      "⎡": 1348,
      "⎢": 1349,
      "⎣": 1350,
      "⎤": 1351,
      "⎥": 1352,
      "⎦": 1353,
      "⏬": 1354,
      "⏰": 1355,
      "⏱": 1356,
      "⏳": 1357,
      "⏹": 1358,
      "①": 1359,
      "②": 1360,
      "③": 1361,
      "④": 1362,
      "⑤": 1363,
      "⑥": 1364,
      "⑦": 1365,
      "⑧": 1366,
      "⑨": 1367,
      "⑩": 1368,
      "⑪": 1369,
      "⑫": 1370,
      "⑬": 1371,
      "⑭": 1372,
      "⑮": 1373,
      "⑯": 1374,
      "─": 1375,
      "│": 1376,
      "┌": 1377,
      "┐": 1378,
      "└": 1379,
      "┘": 1380,
      "├": 1381,
      "┤": 1382,
      "┬": 1383,
      "┴": 1384,
      "┼": 1385,
      "═": 1386,
      "║": 1387,
      "╔": 1388,
      "╗": 1389,
      "╚": 1390,
      "╝": 1391,
      "╠": 1392,
      "╣": 1393,
      "╦": 1394,
      "╩": 1395,
      "╬": 1396,
      "╭": 1397,
      "╮": 1398,
      "╯": 1399,
      "╰": 1400,
      "▄": 1401,
      "█": 1402,
      "▒": 1403,
      "■": 1404,
      "□": 1405,
      "▢": 1406,
      "▪": 1407,
      "▲": 1408,
      "△": 1409,
      "▸": 1410,
      "▼": 1411,
      "▽": 1412,
      "◆": 1413,
      "○": 1414,
      "●": 1415,
      "◕": 1416,
      "◻": 1417,
      "◼": 1418,
      "☀": 1419,
      "☁": 1420,
      "☂": 1421,
      "★": 1422,
      "☆": 1423,
      "☉": 1424,
      "☐": 1425,
      "☔": 1426,
      "☕": 1427,
      "☘": 1428,
      "☝": 1429,
      "☠": 1430,
      "☯": 1431,
      "☰": 1432,
      "☷": 1433,
      "☹": 1434,
      "☺": 1435,
      "♀": 1436,
      "♂": 1437,
      "♠": 1438,
      "♡": 1439,
      "♢": 1440,
      "♣": 1441,
      "♥": 1442,
      "♦": 1443,
      "♩": 1444,
      "♪": 1445,
      "♫": 1446,
      "♭": 1447,
      "⚀": 1448,
      "⚁": 1449,
      "⚂": 1450,
      "⚃": 1451,
      "⚄": 1452,
      "⚅": 1453,
      "⚔": 1454,
      "⚕": 1455,
      "⚠": 1456,
      "⚡": 1457,
      "⚽": 1458,
      "⚾": 1459,
      "⛪": 1460,
      "⛰": 1461,
      "✅": 1462,
      "✈": 1463,
      "✊": 1464,
      "✏": 1465,
      "✓": 1466,
      "✔": 1467,
      "✕": 1468,
      "✖": 1469,
      "✝": 1470,
      "✧": 1471,
      "✨": 1472,
      "✪": 1473,
      "❄": 1474,
      "❌": 1475,
      "❓": 1476,
      "❗": 1477,
      "❛": 1478,
      "❤": 1479,
      "❶": 1480,
      "➡": 1481,
      "➲": 1482,
      "⟶": 1483,
      "⟷": 1484,
      "⦁": 1485,
      "⨀": 1486,
      "⨉": 1487,
      "⭐": 1488,
      "⭕": 1489,
      "⺮": 1490,
      "⼊": 1491,
      "⼝": 1492,
      "⾔": 1493,
      "　": 1494,
      "、": 1495,
      "。": 1496,
      "々": 1497,
      "〇": 1498,
      "〈": 1499,
      "〉": 1500,
      "《": 1501,
      "》": 1502,
      "「": 1503,
      "」": 1504,
      "『": 1505,
      "』": 1506,
      "【": 1507,
      "】": 1508,
      "〓": 1509,
      "〔": 1510,
      "〕": 1511,
      "〖": 1512,
      "〗": 1513,
      "〜": 1514,
      "〝": 1515,
      "〞": 1516,
      "〰": 1517,
      "ぁ": 1518,
      "あ": 1519,
      "い": 1520,
      "う": 1521,
      "え": 1522,
      "お": 1523,
      "か": 1524,
      "が": 1525,
      "き": 1526,
      "ぎ": 1527,
      "く": 1528,
      "ぐ": 1529,
      "け": 1530,
      "げ": 1531,
      "こ": 1532,
      "ご": 1533,
      "さ": 1534,
      "ざ": 1535,
      "し": 1536,
      "じ": 1537,
      "す": 1538,
      "ず": 1539,
      "せ": 1540,
      "ぜ": 1541,
      "そ": 1542,
      "ぞ": 1543,
      "た": 1544,
      "だ": 1545,
      "ち": 1546,
      "っ": 1547,
      "つ": 1548,
      "づ": 1549,
      "て": 1550,
      "で": 1551,
      "と": 1552,
      "ど": 1553,
      "な": 1554,
      "に": 1555,
      "ぬ": 1556,
      "ね": 1557,
      "の": 1558,
      "は": 1559,
      "ば": 1560,
      "ぱ": 1561,
      "ひ": 1562,
      "び": 1563,
      "ぴ": 1564,
      "ふ": 1565,
      "ぶ": 1566,
      "ぷ": 1567,
      "へ": 1568,
      "べ": 1569,
      "ほ": 1570,
      "ぼ": 1571,
      "ま": 1572,
      "み": 1573,
      "む": 1574,
      "め": 1575,
      "も": 1576,
      "ゃ": 1577,
      "や": 1578,
      "ゅ": 1579,
      "ゆ": 1580,
      "ょ": 1581,
      "よ": 1582,
      "ら": 1583,
      "り": 1584,
      "る": 1585,
      "れ": 1586,
      "ろ": 1587,
      "わ": 1588,
      "を": 1589,
      "ん": 1590,
      "ァ": 1591,
      "ア": 1592,
      "ィ": 1593,
      "イ": 1594,
      "ウ": 1595,
      "ェ": 1596,
      "エ": 1597,
      "ォ": 1598,
      "オ": 1599,
      "カ": 1600,
      "ガ": 1601,
      "キ": 1602,
      "ギ": 1603,
      "ク": 1604,
      "グ": 1605,
      "ケ": 1606,
      "ゲ": 1607,
      "コ": 1608,
      "ゴ": 1609,
      "サ": 1610,
      "ザ": 1611,
      "シ": 1612,
      "ジ": 1613,
      "ス": 1614,
      "ズ": 1615,
      "セ": 1616,
      "ゼ": 1617,
      "ソ": 1618,
      "タ": 1619,
      "ダ": 1620,
      "チ": 1621,
      "ッ": 1622,
      "ツ": 1623,
      "テ": 1624,
      "デ": 1625,
      "ト": 1626,
      "ド": 1627,
      "ナ": 1628,
      "ニ": 1629,
      "ネ": 1630,
      "ノ": 1631,
      "ハ": 1632,
      "バ": 1633,
      "パ": 1634,
      "ヒ": 1635,
      "ビ": 1636,
      "ピ": 1637,
      "フ": 1638,
      "ブ": 1639,
      "プ": 1640,
      "ヘ": 1641,
      "ベ": 1642,
      "ペ": 1643,
      "ホ": 1644,
      "ボ": 1645,
      "ポ": 1646,
      "マ": 1647,
      "ミ": 1648,
      "ム": 1649,
      "メ": 1650,
      "モ": 1651,
      "ャ": 1652,
      "ュ": 1653,
      "ユ": 1654,
      "ョ": 1655,
      "ヨ": 1656,
      "ラ": 1657,
      "リ": 1658,
      "ル": 1659,
      "レ": 1660,
      "ロ": 1661,
      "ヮ": 1662,
      "ワ": 1663,
      "ン": 1664,
      "ヴ": 1665,
      "ヶ": 1666,
      "・": 1667,
      "ー": 1668,
      "ㄴ": 1669,
      "ㄹ": 1670,
      "ㅁ": 1671,
      "ㅇ": 1672,
      "ㅏ": 1673,
      "ㅑ": 1674,
      "ㅗ": 1675,
      "㎡": 1676,
      "㎢": 1677,
      "㑷": 1678,
      "㶶": 1679,
      "䥑": 1680,
      "一": 1681,
      "丁": 1682,
      "七": 1683,
      "万": 1684,
      "丈": 1685,
      "三": 1686,
      "上": 1687,
      "下": 1688,
      "不": 1689,
      "与": 1690,
      "丐": 1691,
      "丑": 1692,
      "专": 1693,
      "且": 1694,
      "丕": 1695,
      "世": 1696,
      "丘": 1697,
      "丙": 1698,
      "业": 1699,
      "丛": 1700,
      "东": 1701,
      "丝": 1702,
      "丞": 1703,
      "丟": 1704,
      "両": 1705,
      "丢": 1706,
      "两": 1707,
      "严": 1708,
      "並": 1709,
      "丧": 1710,
      "丨": 1711,
      "个": 1712,
      "丫": 1713,
      "中": 1714,
      "丰": 1715,
      "串": 1716,
      "临": 1717,
      "丶": 1718,
      "丸": 1719,
      "丹": 1720,
      "为": 1721,
      "主": 1722,
      "丼": 1723,
      "丽": 1724,
      "举": 1725,
      "丿": 1726,
      "乃": 1727,
      "久": 1728,
      "乇": 1729,
      "么": 1730,
      "义": 1731,
      "之": 1732,
      "乌": 1733,
      "乍": 1734,
      "乎": 1735,
      "乏": 1736,
      "乐": 1737,
      "乒": 1738,
      "乓": 1739,
      "乔": 1740,
      "乖": 1741,
      "乘": 1742,
      "乙": 1743,
      "乜": 1744,
      "九": 1745,
      "乞": 1746,
      "也": 1747,
      "习": 1748,
      "乡": 1749,
      "书": 1750,
      "乭": 1751,
      "买": 1752,
      "乱": 1753,
      "乳": 1754,
      "乾": 1755,
      "亀": 1756,
      "亂": 1757,
      "了": 1758,
      "予": 1759,
      "争": 1760,
      "事": 1761,
      "二": 1762,
      "亍": 1763,
      "于": 1764,
      "亏": 1765,
      "云": 1766,
      "互": 1767,
      "五": 1768,
      "井": 1769,
      "亘": 1770,
      "亚": 1771,
      "些": 1772,
      "亜": 1773,
      "亞": 1774,
      "亟": 1775,
      "亠": 1776,
      "亡": 1777,
      "亢": 1778,
      "交": 1779,
      "亥": 1780,
      "亦": 1781,
      "产": 1782,
      "亨": 1783,
      "亩": 1784,
      "享": 1785,
      "京": 1786,
      "亭": 1787,
      "亮": 1788,
      "亲": 1789,
      "亳": 1790,
      "亵": 1791,
      "亸": 1792,
      "人": 1793,
      "亻": 1794,
      "亿": 1795,
      "什": 1796,
      "仁": 1797,
      "仃": 1798,
      "仄": 1799,
      "仅": 1800,
      "仆": 1801,
      "仇": 1802,
      "今": 1803,
      "介": 1804,
      "仍": 1805,
      "从": 1806,
      "仏": 1807,
      "仑": 1808,
      "仓": 1809,
      "仔": 1810,
      "仕": 1811,
      "他": 1812,
      "仗": 1813,
      "付": 1814,
      "仙": 1815,
      "仝": 1816,
      "仞": 1817,
      "仟": 1818,
      "代": 1819,
      "令": 1820,
      "以": 1821,
      "仨": 1822,
      "仪": 1823,
      "们": 1824,
      "仮": 1825,
      "仰": 1826,
      "仲": 1827,
      "件": 1828,
      "价": 1829,
      "任": 1830,
      "份": 1831,
      "仿": 1832,
      "企": 1833,
      "伊": 1834,
      "伍": 1835,
      "伎": 1836,
      "伏": 1837,
      "伐": 1838,
      "休": 1839,
      "众": 1840,
      "优": 1841,
      "伙": 1842,
      "会": 1843,
      "伝": 1844,
      "伞": 1845,
      "伟": 1846,
      "传": 1847,
      "伤": 1848,
      "伦": 1849,
      "伪": 1850,
      "伫": 1851,
      "伯": 1852,
      "估": 1853,
      "伴": 1854,
      "伶": 1855,
      "伸": 1856,
      "伺": 1857,
      "似": 1858,
      "伽": 1859,
      "佃": 1860,
      "但": 1861,
      "佈": 1862,
      "位": 1863,
      "低": 1864,
      "住": 1865,
      "佐": 1866,
      "佑": 1867,
      "体": 1868,
      "佔": 1869,
      "何": 1870,
      "佗": 1871,
      "佘": 1872,
      "余": 1873,
      "佚": 1874,
      "佛": 1875,
      "作": 1876,
      "佝": 1877,
      "佟": 1878,
      "你": 1879,
      "佣": 1880,
      "佩": 1881,
      "佬": 1882,
      "佯": 1883,
      "佰": 1884,
      "佳": 1885,
      "佻": 1886,
      "佼": 1887,
      "佾": 1888,
      "使": 1889,
      "侃": 1890,
      "侄": 1891,
      "來": 1892,
      "侈": 1893,
      "侉": 1894,
      "例": 1895,
      "侍": 1896,
      "侏": 1897,
      "侑": 1898,
      "侗": 1899,
      "侘": 1900,
      "供": 1901,
      "依": 1902,
      "侠": 1903,
      "価": 1904,
      "侣": 1905,
      "侥": 1906,
      "侦": 1907,
      "侧": 1908,
      "侨": 1909,
      "侩": 1910,
      "侪": 1911,
      "侬": 1912,
      "侮": 1913,
      "侯": 1914,
      "侵": 1915,
      "侶": 1916,
      "便": 1917,
      "係": 1918,
      "促": 1919,
      "俄": 1920,
      "俅": 1921,
      "俊": 1922,
      "俏": 1923,
      "俐": 1924,
      "俑": 1925,
      "俗": 1926,
      "俘": 1927,
      "俚": 1928,
      "保": 1929,
      "俞": 1930,
      "俠": 1931,
      "信": 1932,
      "俣": 1933,
      "俥": 1934,
      "俨": 1935,
      "俩": 1936,
      "俭": 1937,
      "修": 1938,
      "俯": 1939,
      "俱": 1940,
      "俳": 1941,
      "俸": 1942,
      "俺": 1943,
      "俾": 1944,
      "倉": 1945,
      "個": 1946,
      "倍": 1947,
      "倏": 1948,
      "們": 1949,
      "倒": 1950,
      "倔": 1951,
      "倖": 1952,
      "倘": 1953,
      "候": 1954,
      "倚": 1955,
      "倜": 1956,
      "借": 1957,
      "倡": 1958,
      "値": 1959,
      "倦": 1960,
      "倨": 1961,
      "倩": 1962,
      "倪": 1963,
      "倫": 1964,
      "倬": 1965,
      "倭": 1966,
      "债": 1967,
      "值": 1968,
      "倾": 1969,
      "偃": 1970,
      "假": 1971,
      "偈": 1972,
      "偉": 1973,
      "偋": 1974,
      "偌": 1975,
      "偎": 1976,
      "偏": 1977,
      "偕": 1978,
      "做": 1979,
      "停": 1980,
      "健": 1981,
      "側": 1982,
      "偵": 1983,
      "偶": 1984,
      "偷": 1985,
      "偻": 1986,
      "偽": 1987,
      "偿": 1988,
      "傀": 1989,
      "傅": 1990,
      "傈": 1991,
      "傌": 1992,
      "傍": 1993,
      "傑": 1994,
      "傘": 1995,
      "備": 1996,
      "傢": 1997,
      "傣": 1998,
      "傥": 1999,
      "储": 2000,
      "傩": 2001,
      "催": 2002,
      "傭": 2003,
      "傲": 2004,
      "傳": 2005,
      "傷": 2006,
      "傻": 2007,
      "傾": 2008,
      "僅": 2009,
      "働": 2010,
      "像": 2011,
      "僕": 2012,
      "僖": 2013,
      "僚": 2014,
      "僧": 2015,
      "僱": 2016,
      "僳": 2017,
      "僵": 2018,
      "價": 2019,
      "僻": 2020,
      "儀": 2021,
      "億": 2022,
      "儆": 2023,
      "儋": 2024,
      "儒": 2025,
      "儘": 2026,
      "儡": 2027,
      "優": 2028,
      "儲": 2029,
      "儸": 2030,
      "儼": 2031,
      "儿": 2032,
      "兀": 2033,
      "允": 2034,
      "元": 2035,
      "兄": 2036,
      "充": 2037,
      "兆": 2038,
      "兇": 2039,
      "先": 2040,
      "光": 2041,
      "克": 2042,
      "兌": 2043,
      "免": 2044,
      "児": 2045,
      "兑": 2046,
      "兒": 2047,
      "兔": 2048,
      "兖": 2049,
      "党": 2050,
      "兜": 2051,
      "兢": 2052,
      "入": 2053,
      "內": 2054,
      "全": 2055,
      "兩": 2056,
      "八": 2057,
      "公": 2058,
      "六": 2059,
      "兮": 2060,
      "兰": 2061,
      "共": 2062,
      "关": 2063,
      "兴": 2064,
      "兵": 2065,
      "其": 2066,
      "具": 2067,
      "典": 2068,
      "兹": 2069,
      "养": 2070,
      "兼": 2071,
      "兽": 2072,
      "冀": 2073,
      "冁": 2074,
      "冂": 2075,
      "内": 2076,
      "円": 2077,
      "冈": 2078,
      "冉": 2079,
      "冊": 2080,
      "册": 2081,
      "再": 2082,
      "冒": 2083,
      "冕": 2084,
      "冖": 2085,
      "冗": 2086,
      "写": 2087,
      "军": 2088,
      "农": 2089,
      "冠": 2090,
      "冢": 2091,
      "冤": 2092,
      "冥": 2093,
      "冨": 2094,
      "冬": 2095,
      "冯": 2096,
      "冰": 2097,
      "冲": 2098,
      "决": 2099,
      "况": 2100,
      "冶": 2101,
      "冷": 2102,
      "冻": 2103,
      "冽": 2104,
      "净": 2105,
      "凄": 2106,
      "准": 2107,
      "凇": 2108,
      "凉": 2109,
      "凋": 2110,
      "凌": 2111,
      "凍": 2112,
      "减": 2113,
      "凑": 2114,
      "凛": 2115,
      "凝": 2116,
      "几": 2117,
      "凡": 2118,
      "凤": 2119,
      "処": 2120,
      "凫": 2121,
      "凭": 2122,
      "凯": 2123,
      "凰": 2124,
      "凱": 2125,
      "凳": 2126,
      "凵": 2127,
      "凶": 2128,
      "凸": 2129,
      "凹": 2130,
      "出": 2131,
      "击": 2132,
      "函": 2133,
      "凿": 2134,
      "刀": 2135,
      "刁": 2136,
      "刃": 2137,
      "刄": 2138,
      "刅": 2139,
      "分": 2140,
      "切": 2141,
      "刈": 2142,
      "刊": 2143,
      "刋": 2144,
      "刍": 2145,
      "刎": 2146,
      "刏": 2147,
      "刑": 2148,
      "划": 2149,
      "刖": 2150,
      "列": 2151,
      "刘": 2152,
      "则": 2153,
      "刚": 2154,
      "创": 2155,
      "初": 2156,
      "删": 2157,
      "判": 2158,
      "別": 2159,
      "刨": 2160,
      "利": 2161,
      "刪": 2162,
      "别": 2163,
      "刮": 2164,
      "到": 2165,
      "刳": 2166,
      "制": 2167,
      "刷": 2168,
      "券": 2169,
      "刹": 2170,
      "刺": 2171,
      "刻": 2172,
      "刽": 2173,
      "剀": 2174,
      "剁": 2175,
      "剂": 2176,
      "剃": 2177,
      "則": 2178,
      "削": 2179,
      "剌": 2180,
      "前": 2181,
      "剐": 2182,
      "剑": 2183,
      "剔": 2184,
      "剖": 2185,
      "剛": 2186,
      "剜": 2187,
      "剝": 2188,
      "剠": 2189,
      "剡": 2190,
      "剢": 2191,
      "剣": 2192,
      "剥": 2193,
      "剧": 2194,
      "剩": 2195,
      "剪": 2196,
      "副": 2197,
      "割": 2198,
      "創": 2199,
      "剽": 2200,
      "剿": 2201,
      "劃": 2202,
      "劇": 2203,
      "劈": 2204,
      "劉": 2205,
      "劑": 2206,
      "劒": 2207,
      "力": 2208,
      "劝": 2209,
      "办": 2210,
      "功": 2211,
      "加": 2212,
      "务": 2213,
      "劣": 2214,
      "动": 2215,
      "助": 2216,
      "努": 2217,
      "劫": 2218,
      "劭": 2219,
      "励": 2220,
      "劲": 2221,
      "劳": 2222,
      "労": 2223,
      "劵": 2224,
      "効": 2225,
      "劼": 2226,
      "劾": 2227,
      "势": 2228,
      "勃": 2229,
      "勇": 2230,
      "勉": 2231,
      "勋": 2232,
      "勐": 2233,
      "勒": 2234,
      "動": 2235,
      "勘": 2236,
      "務": 2237,
      "勝": 2238,
      "勞": 2239,
      "募": 2240,
      "勢": 2241,
      "勤": 2242,
      "勧": 2243,
      "勳": 2244,
      "勵": 2245,
      "勹": 2246,
      "勺": 2247,
      "勻": 2248,
      "勾": 2249,
      "勿": 2250,
      "匀": 2251,
      "包": 2252,
      "匆": 2253,
      "匈": 2254,
      "匍": 2255,
      "匐": 2256,
      "匕": 2257,
      "化": 2258,
      "北": 2259,
      "匙": 2260,
      "匚": 2261,
      "匝": 2262,
      "匠": 2263,
      "匡": 2264,
      "匣": 2265,
      "匪": 2266,
      "匮": 2267,
      "匯": 2268,
      "匹": 2269,
      "区": 2270,
      "医": 2271,
      "匾": 2272,
      "匿": 2273,
      "區": 2274,
      "十": 2275,
      "千": 2276,
      "升": 2277,
      "午": 2278,
      "卉": 2279,
      "半": 2280,
      "卍": 2281,
      "华": 2282,
      "协": 2283,
      "卑": 2284,
      "卒": 2285,
      "卓": 2286,
      "協": 2287,
      "单": 2288,
      "卖": 2289,
      "南": 2290,
      "単": 2291,
      "博": 2292,
      "卜": 2293,
      "卞": 2294,
      "卟": 2295,
      "占": 2296,
      "卡": 2297,
      "卢": 2298,
      "卣": 2299,
      "卤": 2300,
      "卦": 2301,
      "卧": 2302,
      "卫": 2303,
      "卯": 2304,
      "印": 2305,
      "危": 2306,
      "即": 2307,
      "却": 2308,
      "卵": 2309,
      "卷": 2310,
      "卸": 2311,
      "卻": 2312,
      "卿": 2313,
      "厀": 2314,
      "厂": 2315,
      "厄": 2316,
      "厅": 2317,
      "历": 2318,
      "厉": 2319,
      "压": 2320,
      "厌": 2321,
      "厕": 2322,
      "厘": 2323,
      "厚": 2324,
      "厝": 2325,
      "原": 2326,
      "厢": 2327,
      "厥": 2328,
      "厦": 2329,
      "厨": 2330,
      "厩": 2331,
      "厭": 2332,
      "厮": 2333,
      "厳": 2334,
      "厶": 2335,
      "去": 2336,
      "县": 2337,
      "叁": 2338,
      "参": 2339,
      "參": 2340,
      "又": 2341,
      "叉": 2342,
      "及": 2343,
      "友": 2344,
      "双": 2345,
      "反": 2346,
      "収": 2347,
      "发": 2348,
      "叔": 2349,
      "取": 2350,
      "受": 2351,
      "变": 2352,
      "叙": 2353,
      "叛": 2354,
      "叟": 2355,
      "叠": 2356,
      "叢": 2357,
      "口": 2358,
      "古": 2359,
      "句": 2360,
      "另": 2361,
      "叨": 2362,
      "叩": 2363,
      "只": 2364,
      "叫": 2365,
      "召": 2366,
      "叭": 2367,
      "叮": 2368,
      "可": 2369,
      "台": 2370,
      "叱": 2371,
      "史": 2372,
      "右": 2373,
      "叶": 2374,
      "号": 2375,
      "司": 2376,
      "叹": 2377,
      "叻": 2378,
      "叽": 2379,
      "吁": 2380,
      "吃": 2381,
      "各": 2382,
      "吆": 2383,
      "合": 2384,
      "吉": 2385,
      "吊": 2386,
      "同": 2387,
      "名": 2388,
      "后": 2389,
      "吏": 2390,
      "吐": 2391,
      "向": 2392,
      "吒": 2393,
      "吓": 2394,
      "吕": 2395,
      "吗": 2396,
      "君": 2397,
      "吝": 2398,
      "吞": 2399,
      "吟": 2400,
      "吠": 2401,
      "吡": 2402,
      "否": 2403,
      "吧": 2404,
      "吨": 2405,
      "吩": 2406,
      "含": 2407,
      "听": 2408,
      "吭": 2409,
      "吮": 2410,
      "启": 2411,
      "吱": 2412,
      "吲": 2413,
      "吴": 2414,
      "吵": 2415,
      "吶": 2416,
      "吸": 2417,
      "吹": 2418,
      "吻": 2419,
      "吼": 2420,
      "吽": 2421,
      "吾": 2422,
      "呀": 2423,
      "呂": 2424,
      "呃": 2425,
      "呆": 2426,
      "呈": 2427,
      "呉": 2428,
      "告": 2429,
      "呋": 2430,
      "呎": 2431,
      "呐": 2432,
      "呓": 2433,
      "呔": 2434,
      "呕": 2435,
      "呗": 2436,
      "员": 2437,
      "呛": 2438,
      "呜": 2439,
      "呢": 2440,
      "呤": 2441,
      "呦": 2442,
      "周": 2443,
      "呱": 2444,
      "味": 2445,
      "呵": 2446,
      "呷": 2447,
      "呸": 2448,
      "呼": 2449,
      "命": 2450,
      "咀": 2451,
      "咂": 2452,
      "咄": 2453,
      "咆": 2454,
      "咋": 2455,
      "和": 2456,
      "咎": 2457,
      "咏": 2458,
      "咐": 2459,
      "咒": 2460,
      "咔": 2461,
      "咕": 2462,
      "咖": 2463,
      "咙": 2464,
      "咚": 2465,
      "咛": 2466,
      "咤": 2467,
      "咦": 2468,
      "咧": 2469,
      "咨": 2470,
      "咩": 2471,
      "咪": 2472,
      "咫": 2473,
      "咬": 2474,
      "咯": 2475,
      "咱": 2476,
      "咲": 2477,
      "咳": 2478,
      "咷": 2479,
      "咸": 2480,
      "咻": 2481,
      "咽": 2482,
      "咾": 2483,
      "咿": 2484,
      "哀": 2485,
      "品": 2486,
      "哄": 2487,
      "哆": 2488,
      "哇": 2489,
      "哈": 2490,
      "哉": 2491,
      "哌": 2492,
      "响": 2493,
      "哎": 2494,
      "哑": 2495,
      "哒": 2496,
      "哔": 2497,
      "哗": 2498,
      "哚": 2499,
      "哝": 2500,
      "哞": 2501,
      "哟": 2502,
      "員": 2503,
      "哥": 2504,
      "哦": 2505,
      "哧": 2506,
      "哨": 2507,
      "哩": 2508,
      "哪": 2509,
      "哭": 2510,
      "哮": 2511,
      "哲": 2512,
      "哺": 2513,
      "哼": 2514,
      "哽": 2515,
      "唄": 2516,
      "唆": 2517,
      "唇": 2518,
      "唉": 2519,
      "唏": 2520,
      "唐": 2521,
      "唑": 2522,
      "唔": 2523,
      "唠": 2524,
      "唢": 2525,
      "唤": 2526,
      "唧": 2527,
      "唬": 2528,
      "售": 2529,
      "唯": 2530,
      "唰": 2531,
      "唱": 2532,
      "唳": 2533,
      "唵": 2534,
      "唾": 2535,
      "唿": 2536,
      "啁": 2537,
      "啃": 2538,
      "啄": 2539,
      "商": 2540,
      "啉": 2541,
      "啊": 2542,
      "問": 2543,
      "啓": 2544,
      "啕": 2545,
      "啜": 2546,
      "啟": 2547,
      "啡": 2548,
      "啤": 2549,
      "啥": 2550,
      "啦": 2551,
      "啧": 2552,
      "啪": 2553,
      "啫": 2554,
      "啬": 2555,
      "啭": 2556,
      "啮": 2557,
      "啰": 2558,
      "啲": 2559,
      "啶": 2560,
      "啸": 2561,
      "啻": 2562,
      "啼": 2563,
      "啾": 2564,
      "喀": 2565,
      "喂": 2566,
      "喃": 2567,
      "善": 2568,
      "喇": 2569,
      "喉": 2570,
      "喊": 2571,
      "喋": 2572,
      "喏": 2573,
      "喑": 2574,
      "喔": 2575,
      "喘": 2576,
      "喙": 2577,
      "喚": 2578,
      "喜": 2579,
      "喝": 2580,
      "喟": 2581,
      "喧": 2582,
      "喪": 2583,
      "喬": 2584,
      "單": 2585,
      "喱": 2586,
      "喳": 2587,
      "喵": 2588,
      "喷": 2589,
      "喹": 2590,
      "喻": 2591,
      "喽": 2592,
      "嗄": 2593,
      "嗅": 2594,
      "嗆": 2595,
      "嗌": 2596,
      "嗎": 2597,
      "嗑": 2598,
      "嗒": 2599,
      "嗓": 2600,
      "嗔": 2601,
      "嗖": 2602,
      "嗚": 2603,
      "嗜": 2604,
      "嗝": 2605,
      "嗞": 2606,
      "嗟": 2607,
      "嗡": 2608,
      "嗣": 2609,
      "嗤": 2610,
      "嗥": 2611,
      "嗦": 2612,
      "嗨": 2613,
      "嗪": 2614,
      "嗮": 2615,
      "嗯": 2616,
      "嗲": 2617,
      "嗳": 2618,
      "嗷": 2619,
      "嗽": 2620,
      "嘀": 2621,
      "嘁": 2622,
      "嘅": 2623,
      "嘆": 2624,
      "嘈": 2625,
      "嘉": 2626,
      "嘌": 2627,
      "嘎": 2628,
      "嘏": 2629,
      "嘔": 2630,
      "嘗": 2631,
      "嘘": 2632,
      "嘛": 2633,
      "嘞": 2634,
      "嘟": 2635,
      "嘢": 2636,
      "嘣": 2637,
      "嘤": 2638,
      "嘧": 2639,
      "嘬": 2640,
      "嘭": 2641,
      "嘯": 2642,
      "嘱": 2643,
      "嘲": 2644,
      "嘴": 2645,
      "嘶": 2646,
      "嘹": 2647,
      "嘻": 2648,
      "嘿": 2649,
      "噁": 2650,
      "噌": 2651,
      "噎": 2652,
      "噓": 2653,
      "噔": 2654,
      "噗": 2655,
      "噘": 2656,
      "噙": 2657,
      "噜": 2658,
      "噢": 2659,
      "噤": 2660,
      "器": 2661,
      "噩": 2662,
      "噪": 2663,
      "噫": 2664,
      "噬": 2665,
      "噱": 2666,
      "噴": 2667,
      "噶": 2668,
      "噹": 2669,
      "噻": 2670,
      "噼": 2671,
      "嚅": 2672,
      "嚎": 2673,
      "嚏": 2674,
      "嚐": 2675,
      "嚒": 2676,
      "嚓": 2677,
      "嚕": 2678,
      "嚟": 2679,
      "嚣": 2680,
      "嚥": 2681,
      "嚯": 2682,
      "嚴": 2683,
      "嚷": 2684,
      "嚼": 2685,
      "囊": 2686,
      "囓": 2687,
      "囔": 2688,
      "囗": 2689,
      "囚": 2690,
      "四": 2691,
      "回": 2692,
      "因": 2693,
      "团": 2694,
      "囤": 2695,
      "囧": 2696,
      "园": 2697,
      "困": 2698,
      "囱": 2699,
      "囲": 2700,
      "図": 2701,
      "围": 2702,
      "囹": 2703,
      "固": 2704,
      "国": 2705,
      "图": 2706,
      "囿": 2707,
      "圃": 2708,
      "圄": 2709,
      "圆": 2710,
      "圈": 2711,
      "國": 2712,
      "圍": 2713,
      "園": 2714,
      "圓": 2715,
      "圖": 2716,
      "團": 2717,
      "圜": 2718,
      "土": 2719,
      "圣": 2720,
      "在": 2721,
      "圩": 2722,
      "圭": 2723,
      "地": 2724,
      "圳": 2725,
      "场": 2726,
      "圻": 2727,
      "圾": 2728,
      "址": 2729,
      "坁": 2730,
      "坂": 2731,
      "均": 2732,
      "坊": 2733,
      "坍": 2734,
      "坎": 2735,
      "坏": 2736,
      "坐": 2737,
      "坑": 2738,
      "坖": 2739,
      "块": 2740,
      "坚": 2741,
      "坛": 2742,
      "坝": 2743,
      "坞": 2744,
      "坟": 2745,
      "坠": 2746,
      "坡": 2747,
      "坤": 2748,
      "坦": 2749,
      "坨": 2750,
      "坩": 2751,
      "坪": 2752,
      "坯": 2753,
      "坳": 2754,
      "坷": 2755,
      "垂": 2756,
      "垃": 2757,
      "垄": 2758,
      "垅": 2759,
      "型": 2760,
      "垒": 2761,
      "垓": 2762,
      "垕": 2763,
      "垛": 2764,
      "垟": 2765,
      "垠": 2766,
      "垢": 2767,
      "垣": 2768,
      "垦": 2769,
      "垩": 2770,
      "垫": 2771,
      "垮": 2772,
      "垵": 2773,
      "垸": 2774,
      "埂": 2775,
      "埃": 2776,
      "埋": 2777,
      "城": 2778,
      "埔": 2779,
      "埕": 2780,
      "埚": 2781,
      "域": 2782,
      "埠": 2783,
      "執": 2784,
      "埸": 2785,
      "培": 2786,
      "基": 2787,
      "埼": 2788,
      "堀": 2789,
      "堂": 2790,
      "堅": 2791,
      "堆": 2792,
      "堇": 2793,
      "堊": 2794,
      "堑": 2795,
      "堕": 2796,
      "堞": 2797,
      "堡": 2798,
      "堤": 2799,
      "堪": 2800,
      "堯": 2801,
      "堰": 2802,
      "報": 2803,
      "場": 2804,
      "堵": 2805,
      "堺": 2806,
      "塊": 2807,
      "塌": 2808,
      "塍": 2809,
      "塑": 2810,
      "塒": 2811,
      "塔": 2812,
      "塗": 2813,
      "塘": 2814,
      "塚": 2815,
      "塞": 2816,
      "塩": 2817,
      "塪": 2818,
      "填": 2819,
      "塱": 2820,
      "塵": 2821,
      "塾": 2822,
      "境": 2823,
      "墅": 2824,
      "墉": 2825,
      "墊": 2826,
      "墒": 2827,
      "墓": 2828,
      "増": 2829,
      "墙": 2830,
      "墜": 2831,
      "增": 2832,
      "墟": 2833,
      "墨": 2834,
      "墩": 2835,
      "墳": 2836,
      "墻": 2837,
      "壁": 2838,
      "壅": 2839,
      "壇": 2840,
      "壊": 2841,
      "壌": 2842,
      "壑": 2843,
      "壓": 2844,
      "壕": 2845,
      "壘": 2846,
      "壞": 2847,
      "壤": 2848,
      "壩": 2849,
      "士": 2850,
      "壬": 2851,
      "壮": 2852,
      "壯": 2853,
      "声": 2854,
      "売": 2855,
      "壳": 2856,
      "壶": 2857,
      "壹": 2858,
      "壺": 2859,
      "壽": 2860,
      "处": 2861,
      "备": 2862,
      "変": 2863,
      "复": 2864,
      "夏": 2865,
      "夕": 2866,
      "外": 2867,
      "夙": 2868,
      "多": 2869,
      "夛": 2870,
      "夜": 2871,
      "够": 2872,
      "夠": 2873,
      "夢": 2874,
      "夥": 2875,
      "大": 2876,
      "天": 2877,
      "太": 2878,
      "夫": 2879,
      "夬": 2880,
      "夭": 2881,
      "央": 2882,
      "夯": 2883,
      "失": 2884,
      "头": 2885,
      "夷": 2886,
      "夸": 2887,
      "夹": 2888,
      "夺": 2889,
      "夾": 2890,
      "奂": 2891,
      "奄": 2892,
      "奇": 2893,
      "奈": 2894,
      "奉": 2895,
      "奋": 2896,
      "奎": 2897,
      "奏": 2898,
      "契": 2899,
      "奔": 2900,
      "奕": 2901,
      "奖": 2902,
      "套": 2903,
      "奘": 2904,
      "奚": 2905,
      "奠": 2906,
      "奢": 2907,
      "奥": 2908,
      "奧": 2909,
      "奪": 2910,
      "奮": 2911,
      "女": 2912,
      "奴": 2913,
      "奶": 2914,
      "奸": 2915,
      "她": 2916,
      "奻": 2917,
      "好": 2918,
      "妁": 2919,
      "如": 2920,
      "妃": 2921,
      "妄": 2922,
      "妆": 2923,
      "妇": 2924,
      "妈": 2925,
      "妊": 2926,
      "妍": 2927,
      "妒": 2928,
      "妓": 2929,
      "妖": 2930,
      "妙": 2931,
      "妝": 2932,
      "妞": 2933,
      "妤": 2934,
      "妥": 2935,
      "妨": 2936,
      "妩": 2937,
      "妪": 2938,
      "妫": 2939,
      "妮": 2940,
      "妯": 2941,
      "妲": 2942,
      "妳": 2943,
      "妹": 2944,
      "妻": 2945,
      "妾": 2946,
      "姆": 2947,
      "姉": 2948,
      "姊": 2949,
      "始": 2950,
      "姐": 2951,
      "姑": 2952,
      "姓": 2953,
      "委": 2954,
      "姗": 2955,
      "姘": 2956,
      "姚": 2957,
      "姜": 2958,
      "姝": 2959,
      "姣": 2960,
      "姤": 2961,
      "姥": 2962,
      "姨": 2963,
      "姬": 2964,
      "姮": 2965,
      "姹": 2966,
      "姻": 2967,
      "姿": 2968,
      "威": 2969,
      "娃": 2970,
      "娄": 2971,
      "娅": 2972,
      "娆": 2973,
      "娇": 2974,
      "娌": 2975,
      "娑": 2976,
      "娓": 2977,
      "娘": 2978,
      "娛": 2979,
      "娜": 2980,
      "娟": 2981,
      "娠": 2982,
      "娣": 2983,
      "娥": 2984,
      "娩": 2985,
      "娱": 2986,
      "娲": 2987,
      "娴": 2988,
      "娶": 2989,
      "娼": 2990,
      "婀": 2991,
      "婆": 2992,
      "婉": 2993,
      "婕": 2994,
      "婚": 2995,
      "婢": 2996,
      "婦": 2997,
      "婧": 2998,
      "婪": 2999,
      "婴": 3000,
      "婵": 3001,
      "婶": 3002,
      "婷": 3003,
      "婺": 3004,
      "婿": 3005,
      "媒": 3006,
      "媖": 3007,
      "媚": 3008,
      "媛": 3009,
      "媧": 3010,
      "媲": 3011,
      "媳": 3012,
      "媸": 3013,
      "媽": 3014,
      "嫁": 3015,
      "嫂": 3016,
      "嫉": 3017,
      "嫋": 3018,
      "嫌": 3019,
      "嫔": 3020,
      "嫖": 3021,
      "嫡": 3022,
      "嫣": 3023,
      "嫦": 3024,
      "嫩": 3025,
      "嫫": 3026,
      "嫺": 3027,
      "嬅": 3028,
      "嬉": 3029,
      "嬗": 3030,
      "嬛": 3031,
      "嬰": 3032,
      "嬴": 3033,
      "嬷": 3034,
      "孀": 3035,
      "子": 3036,
      "孑": 3037,
      "孔": 3038,
      "孕": 3039,
      "字": 3040,
      "存": 3041,
      "孙": 3042,
      "孚": 3043,
      "孜": 3044,
      "孝": 3045,
      "孟": 3046,
      "孢": 3047,
      "季": 3048,
      "孤": 3049,
      "学": 3050,
      "孩": 3051,
      "孪": 3052,
      "孫": 3053,
      "孰": 3054,
      "孱": 3055,
      "孳": 3056,
      "孵": 3057,
      "學": 3058,
      "孺": 3059,
      "孽": 3060,
      "宀": 3061,
      "宁": 3062,
      "它": 3063,
      "宅": 3064,
      "宇": 3065,
      "守": 3066,
      "安": 3067,
      "宋": 3068,
      "完": 3069,
      "宏": 3070,
      "宓": 3071,
      "宕": 3072,
      "宗": 3073,
      "官": 3074,
      "宙": 3075,
      "定": 3076,
      "宛": 3077,
      "宜": 3078,
      "宝": 3079,
      "实": 3080,
      "実": 3081,
      "宠": 3082,
      "审": 3083,
      "客": 3084,
      "宣": 3085,
      "室": 3086,
      "宥": 3087,
      "宦": 3088,
      "宪": 3089,
      "宫": 3090,
      "宮": 3091,
      "宰": 3092,
      "害": 3093,
      "宴": 3094,
      "宵": 3095,
      "家": 3096,
      "宸": 3097,
      "容": 3098,
      "宽": 3099,
      "宾": 3100,
      "宿": 3101,
      "寂": 3102,
      "寄": 3103,
      "寅": 3104,
      "密": 3105,
      "寇": 3106,
      "寋": 3107,
      "富": 3108,
      "寐": 3109,
      "寒": 3110,
      "寓": 3111,
      "寔": 3112,
      "寛": 3113,
      "寝": 3114,
      "寞": 3115,
      "察": 3116,
      "寡": 3117,
      "寤": 3118,
      "寥": 3119,
      "實": 3120,
      "寧": 3121,
      "寨": 3122,
      "審": 3123,
      "寫": 3124,
      "寬": 3125,
      "寰": 3126,
      "寶": 3127,
      "寸": 3128,
      "对": 3129,
      "寺": 3130,
      "寻": 3131,
      "导": 3132,
      "対": 3133,
      "寿": 3134,
      "封": 3135,
      "専": 3136,
      "射": 3137,
      "将": 3138,
      "將": 3139,
      "專": 3140,
      "尉": 3141,
      "尊": 3142,
      "尋": 3143,
      "對": 3144,
      "導": 3145,
      "小": 3146,
      "少": 3147,
      "尔": 3148,
      "尖": 3149,
      "尘": 3150,
      "尚": 3151,
      "尝": 3152,
      "尞": 3153,
      "尢": 3154,
      "尤": 3155,
      "尧": 3156,
      "尬": 3157,
      "就": 3158,
      "尴": 3159,
      "尷": 3160,
      "尸": 3161,
      "尹": 3162,
      "尺": 3163,
      "尻": 3164,
      "尼": 3165,
      "尽": 3166,
      "尾": 3167,
      "尿": 3168,
      "局": 3169,
      "屁": 3170,
      "层": 3171,
      "居": 3172,
      "屈": 3173,
      "屉": 3174,
      "届": 3175,
      "屋": 3176,
      "屍": 3177,
      "屎": 3178,
      "屏": 3179,
      "屐": 3180,
      "屑": 3181,
      "展": 3182,
      "屛": 3183,
      "属": 3184,
      "屠": 3185,
      "屡": 3186,
      "屣": 3187,
      "層": 3188,
      "履": 3189,
      "屬": 3190,
      "屮": 3191,
      "屯": 3192,
      "山": 3193,
      "屹": 3194,
      "屿": 3195,
      "岀": 3196,
      "岁": 3197,
      "岂": 3198,
      "岌": 3199,
      "岐": 3200,
      "岑": 3201,
      "岔": 3202,
      "岖": 3203,
      "岗": 3204,
      "岘": 3205,
      "岚": 3206,
      "岛": 3207,
      "岜": 3208,
      "岡": 3209,
      "岢": 3210,
      "岩": 3211,
      "岫": 3212,
      "岬": 3213,
      "岭": 3214,
      "岱": 3215,
      "岳": 3216,
      "岷": 3217,
      "岸": 3218,
      "岿": 3219,
      "峇": 3220,
      "峋": 3221,
      "峒": 3222,
      "峙": 3223,
      "峠": 3224,
      "峡": 3225,
      "峤": 3226,
      "峥": 3227,
      "峦": 3228,
      "峨": 3229,
      "峪": 3230,
      "峭": 3231,
      "峯": 3232,
      "峰": 3233,
      "峴": 3234,
      "島": 3235,
      "峻": 3236,
      "崂": 3237,
      "崃": 3238,
      "崆": 3239,
      "崇": 3240,
      "崎": 3241,
      "崑": 3242,
      "崔": 3243,
      "崖": 3244,
      "崙": 3245,
      "崛": 3246,
      "崧": 3247,
      "崩": 3248,
      "崭": 3249,
      "崴": 3250,
      "崽": 3251,
      "嵇": 3252,
      "嵊": 3253,
      "嵋": 3254,
      "嵌": 3255,
      "嵐": 3256,
      "嵘": 3257,
      "嵩": 3258,
      "嵬": 3259,
      "嵯": 3260,
      "嵴": 3261,
      "嶂": 3262,
      "嶋": 3263,
      "嶙": 3264,
      "嶷": 3265,
      "嶽": 3266,
      "巅": 3267,
      "巌": 3268,
      "巍": 3269,
      "巒": 3270,
      "巖": 3271,
      "巛": 3272,
      "川": 3273,
      "州": 3274,
      "巡": 3275,
      "巢": 3276,
      "工": 3277,
      "左": 3278,
      "巧": 3279,
      "巨": 3280,
      "巩": 3281,
      "巫": 3282,
      "差": 3283,
      "己": 3284,
      "已": 3285,
      "巳": 3286,
      "巴": 3287,
      "巷": 3288,
      "巻": 3289,
      "巽": 3290,
      "巾": 3291,
      "币": 3292,
      "市": 3293,
      "布": 3294,
      "帅": 3295,
      "帆": 3296,
      "师": 3297,
      "希": 3298,
      "帏": 3299,
      "帐": 3300,
      "帕": 3301,
      "帖": 3302,
      "帘": 3303,
      "帚": 3304,
      "帛": 3305,
      "帜": 3306,
      "帝": 3307,
      "带": 3308,
      "帧": 3309,
      "師": 3310,
      "席": 3311,
      "帮": 3312,
      "帯": 3313,
      "帰": 3314,
      "帳": 3315,
      "帶": 3316,
      "帷": 3317,
      "常": 3318,
      "帻": 3319,
      "帽": 3320,
      "幂": 3321,
      "幄": 3322,
      "幅": 3323,
      "幌": 3324,
      "幔": 3325,
      "幕": 3326,
      "幛": 3327,
      "幡": 3328,
      "幢": 3329,
      "幣": 3330,
      "幫": 3331,
      "干": 3332,
      "平": 3333,
      "年": 3334,
      "幵": 3335,
      "并": 3336,
      "幸": 3337,
      "幹": 3338,
      "幺": 3339,
      "幻": 3340,
      "幼": 3341,
      "幽": 3342,
      "幾": 3343,
      "广": 3344,
      "広": 3345,
      "庄": 3346,
      "庆": 3347,
      "庇": 3348,
      "床": 3349,
      "序": 3350,
      "庐": 3351,
      "庑": 3352,
      "库": 3353,
      "应": 3354,
      "底": 3355,
      "庖": 3356,
      "店": 3357,
      "庙": 3358,
      "庚": 3359,
      "府": 3360,
      "庞": 3361,
      "废": 3362,
      "度": 3363,
      "座": 3364,
      "庫": 3365,
      "庭": 3366,
      "庵": 3367,
      "庶": 3368,
      "康": 3369,
      "庸": 3370,
      "庾": 3371,
      "廃": 3372,
      "廈": 3373,
      "廉": 3374,
      "廊": 3375,
      "廓": 3376,
      "廖": 3377,
      "廚": 3378,
      "廠": 3379,
      "廢": 3380,
      "廣": 3381,
      "廳": 3382,
      "廴": 3383,
      "延": 3384,
      "廷": 3385,
      "建": 3386,
      "廻": 3387,
      "廾": 3388,
      "廿": 3389,
      "开": 3390,
      "弁": 3391,
      "异": 3392,
      "弃": 3393,
      "弄": 3394,
      "弈": 3395,
      "弊": 3396,
      "弋": 3397,
      "式": 3398,
      "弑": 3399,
      "弓": 3400,
      "引": 3401,
      "弗": 3402,
      "弘": 3403,
      "弛": 3404,
      "弟": 3405,
      "张": 3406,
      "弥": 3407,
      "弦": 3408,
      "弧": 3409,
      "弨": 3410,
      "弩": 3411,
      "弪": 3412,
      "弭": 3413,
      "弯": 3414,
      "弱": 3415,
      "張": 3416,
      "強": 3417,
      "弹": 3418,
      "强": 3419,
      "弼": 3420,
      "弾": 3421,
      "彅": 3422,
      "彈": 3423,
      "彌": 3424,
      "彎": 3425,
      "彑": 3426,
      "归": 3427,
      "当": 3428,
      "录": 3429,
      "彗": 3430,
      "彙": 3431,
      "彝": 3432,
      "彡": 3433,
      "形": 3434,
      "彤": 3435,
      "彦": 3436,
      "彧": 3437,
      "彩": 3438,
      "彪": 3439,
      "彬": 3440,
      "彭": 3441,
      "彰": 3442,
      "影": 3443,
      "彳": 3444,
      "彷": 3445,
      "役": 3446,
      "彻": 3447,
      "彼": 3448,
      "彿": 3449,
      "往": 3450,
      "征": 3451,
      "徂": 3452,
      "径": 3453,
      "待": 3454,
      "徇": 3455,
      "很": 3456,
      "徉": 3457,
      "徊": 3458,
      "律": 3459,
      "後": 3460,
      "徐": 3461,
      "徑": 3462,
      "徒": 3463,
      "徕": 3464,
      "得": 3465,
      "徘": 3466,
      "徙": 3467,
      "徜": 3468,
      "從": 3469,
      "御": 3470,
      "徨": 3471,
      "復": 3472,
      "循": 3473,
      "微": 3474,
      "徳": 3475,
      "徴": 3476,
      "徵": 3477,
      "德": 3478,
      "徹": 3479,
      "徼": 3480,
      "徽": 3481,
      "心": 3482,
      "忄": 3483,
      "必": 3484,
      "忆": 3485,
      "忌": 3486,
      "忍": 3487,
      "忏": 3488,
      "忐": 3489,
      "忑": 3490,
      "忒": 3491,
      "忖": 3492,
      "志": 3493,
      "忘": 3494,
      "忙": 3495,
      "忚": 3496,
      "応": 3497,
      "忝": 3498,
      "忠": 3499,
      "忡": 3500,
      "忤": 3501,
      "忧": 3502,
      "忪": 3503,
      "快": 3504,
      "忭": 3505,
      "忱": 3506,
      "念": 3507,
      "忸": 3508,
      "忻": 3509,
      "忽": 3510,
      "忾": 3511,
      "忿": 3512,
      "怀": 3513,
      "态": 3514,
      "怂": 3515,
      "怅": 3516,
      "怆": 3517,
      "怊": 3518,
      "怍": 3519,
      "怎": 3520,
      "怏": 3521,
      "怒": 3522,
      "怔": 3523,
      "怕": 3524,
      "怖": 3525,
      "怜": 3526,
      "思": 3527,
      "怠": 3528,
      "怡": 3529,
      "急": 3530,
      "怦": 3531,
      "性": 3532,
      "怨": 3533,
      "怪": 3534,
      "怯": 3535,
      "怵": 3536,
      "怹": 3537,
      "总": 3538,
      "怼": 3539,
      "恃": 3540,
      "恆": 3541,
      "恋": 3542,
      "恍": 3543,
      "恐": 3544,
      "恒": 3545,
      "恕": 3546,
      "恙": 3547,
      "恚": 3548,
      "恢": 3549,
      "恣": 3550,
      "恤": 3551,
      "恥": 3552,
      "恨": 3553,
      "恩": 3554,
      "恪": 3555,
      "恫": 3556,
      "恬": 3557,
      "恭": 3558,
      "息": 3559,
      "恰": 3560,
      "恳": 3561,
      "恵": 3562,
      "恶": 3563,
      "恸": 3564,
      "恺": 3565,
      "恻": 3566,
      "恼": 3567,
      "恿": 3568,
      "悄": 3569,
      "悅": 3570,
      "悉": 3571,
      "悌": 3572,
      "悍": 3573,
      "悔": 3574,
      "悖": 3575,
      "悚": 3576,
      "悟": 3577,
      "悠": 3578,
      "患": 3579,
      "悦": 3580,
      "您": 3581,
      "悪": 3582,
      "悬": 3583,
      "悭": 3584,
      "悯": 3585,
      "悱": 3586,
      "悲": 3587,
      "悴": 3588,
      "悸": 3589,
      "悻": 3590,
      "悼": 3591,
      "情": 3592,
      "惆": 3593,
      "惇": 3594,
      "惊": 3595,
      "惋": 3596,
      "惑": 3597,
      "惕": 3598,
      "惘": 3599,
      "惚": 3600,
      "惜": 3601,
      "惟": 3602,
      "惠": 3603,
      "惡": 3604,
      "惦": 3605,
      "惧": 3606,
      "惨": 3607,
      "惩": 3608,
      "惫": 3609,
      "惬": 3610,
      "惭": 3611,
      "惮": 3612,
      "惯": 3613,
      "惰": 3614,
      "惱": 3615,
      "想": 3616,
      "惴": 3617,
      "惶": 3618,
      "惹": 3619,
      "惺": 3620,
      "愁": 3621,
      "愆": 3622,
      "愈": 3623,
      "愉": 3624,
      "愍": 3625,
      "愎": 3626,
      "意": 3627,
      "愕": 3628,
      "愚": 3629,
      "愛": 3630,
      "感": 3631,
      "愠": 3632,
      "愣": 3633,
      "愤": 3634,
      "愧": 3635,
      "愫": 3636,
      "愿": 3637,
      "慈": 3638,
      "態": 3639,
      "慌": 3640,
      "慎": 3641,
      "慑": 3642,
      "慕": 3643,
      "慜": 3644,
      "慢": 3645,
      "慣": 3646,
      "慧": 3647,
      "慨": 3648,
      "慮": 3649,
      "慰": 3650,
      "慵": 3651,
      "慶": 3652,
      "慷": 3653,
      "慾": 3654,
      "憂": 3655,
      "憊": 3656,
      "憋": 3657,
      "憎": 3658,
      "憑": 3659,
      "憔": 3660,
      "憤": 3661,
      "憧": 3662,
      "憨": 3663,
      "憩": 3664,
      "憬": 3665,
      "憶": 3666,
      "憾": 3667,
      "懂": 3668,
      "懈": 3669,
      "應": 3670,
      "懊": 3671,
      "懋": 3672,
      "懐": 3673,
      "懑": 3674,
      "懒": 3675,
      "懦": 3676,
      "懵": 3677,
      "懷": 3678,
      "懸": 3679,
      "懼": 3680,
      "懿": 3681,
      "戀": 3682,
      "戈": 3683,
      "戊": 3684,
      "戌": 3685,
      "戍": 3686,
      "戎": 3687,
      "戏": 3688,
      "成": 3689,
      "我": 3690,
      "戒": 3691,
      "戔": 3692,
      "或": 3693,
      "战": 3694,
      "戚": 3695,
      "戛": 3696,
      "戟": 3697,
      "戠": 3698,
      "戡": 3699,
      "戦": 3700,
      "截": 3701,
      "戮": 3702,
      "戰": 3703,
      "戲": 3704,
      "戳": 3705,
      "戴": 3706,
      "戶": 3707,
      "户": 3708,
      "戸": 3709,
      "戻": 3710,
      "戾": 3711,
      "房": 3712,
      "所": 3713,
      "扁": 3714,
      "扇": 3715,
      "扈": 3716,
      "扉": 3717,
      "手": 3718,
      "扌": 3719,
      "才": 3720,
      "扎": 3721,
      "扑": 3722,
      "扒": 3723,
      "打": 3724,
      "扔": 3725,
      "払": 3726,
      "托": 3727,
      "扛": 3728,
      "扣": 3729,
      "扦": 3730,
      "执": 3731,
      "扩": 3732,
      "扪": 3733,
      "扫": 3734,
      "扬": 3735,
      "扭": 3736,
      "扮": 3737,
      "扯": 3738,
      "扰": 3739,
      "扱": 3740,
      "扳": 3741,
      "扶": 3742,
      "批": 3743,
      "扼": 3744,
      "找": 3745,
      "承": 3746,
      "技": 3747,
      "抄": 3748,
      "抉": 3749,
      "把": 3750,
      "抑": 3751,
      "抒": 3752,
      "抓": 3753,
      "投": 3754,
      "抖": 3755,
      "抗": 3756,
      "折": 3757,
      "抚": 3758,
      "抛": 3759,
      "択": 3760,
      "抟": 3761,
      "抠": 3762,
      "抡": 3763,
      "抢": 3764,
      "护": 3765,
      "报": 3766,
      "抨": 3767,
      "披": 3768,
      "抬": 3769,
      "抱": 3770,
      "抵": 3771,
      "抹": 3772,
      "抻": 3773,
      "押": 3774,
      "抽": 3775,
      "抿": 3776,
      "拂": 3777,
      "拄": 3778,
      "担": 3779,
      "拆": 3780,
      "拇": 3781,
      "拈": 3782,
      "拉": 3783,
      "拊": 3784,
      "拋": 3785,
      "拌": 3786,
      "拍": 3787,
      "拎": 3788,
      "拏": 3789,
      "拐": 3790,
      "拑": 3791,
      "拒": 3792,
      "拓": 3793,
      "拔": 3794,
      "拖": 3795,
      "拗": 3796,
      "拘": 3797,
      "拙": 3798,
      "拚": 3799,
      "招": 3800,
      "拜": 3801,
      "拝": 3802,
      "拟": 3803,
      "拢": 3804,
      "拣": 3805,
      "拥": 3806,
      "拦": 3807,
      "拧": 3808,
      "拨": 3809,
      "择": 3810,
      "括": 3811,
      "拭": 3812,
      "拮": 3813,
      "拯": 3814,
      "拱": 3815,
      "拳": 3816,
      "拴": 3817,
      "拶": 3818,
      "拷": 3819,
      "拼": 3820,
      "拽": 3821,
      "拾": 3822,
      "拿": 3823,
      "持": 3824,
      "挂": 3825,
      "指": 3826,
      "挈": 3827,
      "按": 3828,
      "挎": 3829,
      "挑": 3830,
      "挖": 3831,
      "挚": 3832,
      "挛": 3833,
      "挝": 3834,
      "挞": 3835,
      "挟": 3836,
      "挠": 3837,
      "挡": 3838,
      "挣": 3839,
      "挤": 3840,
      "挥": 3841,
      "挨": 3842,
      "挪": 3843,
      "挫": 3844,
      "振": 3845,
      "挲": 3846,
      "挹": 3847,
      "挺": 3848,
      "挽": 3849,
      "捂": 3850,
      "捅": 3851,
      "捆": 3852,
      "捉": 3853,
      "捋": 3854,
      "捌": 3855,
      "捍": 3856,
      "捎": 3857,
      "捏": 3858,
      "捐": 3859,
      "捕": 3860,
      "捞": 3861,
      "损": 3862,
      "捡": 3863,
      "换": 3864,
      "捣": 3865,
      "捧": 3866,
      "捨": 3867,
      "捭": 3868,
      "据": 3869,
      "捱": 3870,
      "捲": 3871,
      "捶": 3872,
      "捷": 3873,
      "捺": 3874,
      "捻": 3875,
      "掀": 3876,
      "掂": 3877,
      "掃": 3878,
      "掇": 3879,
      "授": 3880,
      "掉": 3881,
      "掌": 3882,
      "掏": 3883,
      "掐": 3884,
      "排": 3885,
      "掖": 3886,
      "掘": 3887,
      "掙": 3888,
      "掛": 3889,
      "掠": 3890,
      "採": 3891,
      "探": 3892,
      "掣": 3893,
      "掤": 3894,
      "接": 3895,
      "控": 3896,
      "推": 3897,
      "掩": 3898,
      "措": 3899,
      "掬": 3900,
      "掰": 3901,
      "掳": 3902,
      "掴": 3903,
      "掷": 3904,
      "掸": 3905,
      "掺": 3906,
      "掼": 3907,
      "揄": 3908,
      "揆": 3909,
      "揉": 3910,
      "揍": 3911,
      "描": 3912,
      "提": 3913,
      "插": 3914,
      "揖": 3915,
      "揚": 3916,
      "換": 3917,
      "揠": 3918,
      "握": 3919,
      "揣": 3920,
      "揪": 3921,
      "揭": 3922,
      "揮": 3923,
      "揰": 3924,
      "援": 3925,
      "揶": 3926,
      "揽": 3927,
      "搀": 3928,
      "搁": 3929,
      "搂": 3930,
      "搅": 3931,
      "損": 3932,
      "搏": 3933,
      "搐": 3934,
      "搓": 3935,
      "搔": 3936,
      "搖": 3937,
      "搗": 3938,
      "搜": 3939,
      "搞": 3940,
      "搡": 3941,
      "搪": 3942,
      "搬": 3943,
      "搭": 3944,
      "携": 3945,
      "搽": 3946,
      "摁": 3947,
      "摄": 3948,
      "摆": 3949,
      "摇": 3950,
      "摈": 3951,
      "摊": 3952,
      "摒": 3953,
      "摔": 3954,
      "摘": 3955,
      "摞": 3956,
      "摧": 3957,
      "摩": 3958,
      "摭": 3959,
      "摯": 3960,
      "摸": 3961,
      "摹": 3962,
      "摺": 3963,
      "撂": 3964,
      "撃": 3965,
      "撅": 3966,
      "撇": 3967,
      "撑": 3968,
      "撒": 3969,
      "撕": 3970,
      "撞": 3971,
      "撤": 3972,
      "撥": 3973,
      "撩": 3974,
      "撫": 3975,
      "撬": 3976,
      "播": 3977,
      "撮": 3978,
      "撰": 3979,
      "撵": 3980,
      "撷": 3981,
      "撸": 3982,
      "撻": 3983,
      "撼": 3984,
      "撿": 3985,
      "擀": 3986,
      "擁": 3987,
      "擂": 3988,
      "擅": 3989,
      "擇": 3990,
      "擊": 3991,
      "操": 3992,
      "擎": 3993,
      "擒": 3994,
      "擔": 3995,
      "擘": 3996,
      "據": 3997,
      "擞": 3998,
      "擢": 3999,
      "擤": 4000,
      "擦": 4001,
      "擬": 4002,
      "擰": 4003,
      "擴": 4004,
      "擷": 4005,
      "擺": 4006,
      "擾": 4007,
      "攀": 4008,
      "攏": 4009,
      "攒": 4010,
      "攔": 4011,
      "攘": 4012,
      "攝": 4013,
      "攣": 4014,
      "攥": 4015,
      "攪": 4016,
      "攫": 4017,
      "支": 4018,
      "收": 4019,
      "攸": 4020,
      "改": 4021,
      "攻": 4022,
      "放": 4023,
      "政": 4024,
      "故": 4025,
      "效": 4026,
      "敌": 4027,
      "敏": 4028,
      "救": 4029,
      "敕": 4030,
      "敖": 4031,
      "敗": 4032,
      "敘": 4033,
      "教": 4034,
      "敛": 4035,
      "敝": 4036,
      "敞": 4037,
      "敢": 4038,
      "散": 4039,
      "敦": 4040,
      "敬": 4041,
      "数": 4042,
      "敲": 4043,
      "整": 4044,
      "敵": 4045,
      "敷": 4046,
      "數": 4047,
      "文": 4048,
      "斋": 4049,
      "斌": 4050,
      "斐": 4051,
      "斑": 4052,
      "斓": 4053,
      "斗": 4054,
      "料": 4055,
      "斛": 4056,
      "斜": 4057,
      "斝": 4058,
      "斟": 4059,
      "斡": 4060,
      "斤": 4061,
      "斥": 4062,
      "斧": 4063,
      "斩": 4064,
      "斫": 4065,
      "断": 4066,
      "斯": 4067,
      "新": 4068,
      "斷": 4069,
      "方": 4070,
      "於": 4071,
      "施": 4072,
      "旁": 4073,
      "旃": 4074,
      "旅": 4075,
      "旋": 4076,
      "旌": 4077,
      "旎": 4078,
      "族": 4079,
      "旖": 4080,
      "旗": 4081,
      "无": 4082,
      "旡": 4083,
      "既": 4084,
      "日": 4085,
      "旦": 4086,
      "旧": 4087,
      "旨": 4088,
      "早": 4089,
      "旬": 4090,
      "旭": 4091,
      "旮": 4092,
      "旯": 4093,
      "旱": 4094,
      "旳": 4095,
      "时": 4096,
      "旷": 4097,
      "旺": 4098,
      "旻": 4099,
      "昀": 4100,
      "昂": 4101,
      "昃": 4102,
      "昆": 4103,
      "昇": 4104,
      "昊": 4105,
      "昌": 4106,
      "明": 4107,
      "昏": 4108,
      "易": 4109,
      "昔": 4110,
      "昕": 4111,
      "昙": 4112,
      "星": 4113,
      "映": 4114,
      "春": 4115,
      "昧": 4116,
      "昨": 4117,
      "昭": 4118,
      "是": 4119,
      "昱": 4120,
      "昴": 4121,
      "昵": 4122,
      "昼": 4123,
      "显": 4124,
      "晁": 4125,
      "時": 4126,
      "晃": 4127,
      "晋": 4128,
      "晌": 4129,
      "晏": 4130,
      "晒": 4131,
      "晓": 4132,
      "晔": 4133,
      "晕": 4134,
      "晖": 4135,
      "晗": 4136,
      "晚": 4137,
      "晞": 4138,
      "晟": 4139,
      "晡": 4140,
      "晤": 4141,
      "晦": 4142,
      "晨": 4143,
      "晩": 4144,
      "普": 4145,
      "景": 4146,
      "晰": 4147,
      "晴": 4148,
      "晶": 4149,
      "晷": 4150,
      "智": 4151,
      "晾": 4152,
      "暁": 4153,
      "暂": 4154,
      "暄": 4155,
      "暇": 4156,
      "暈": 4157,
      "暑": 4158,
      "暖": 4159,
      "暗": 4160,
      "暝": 4161,
      "暢": 4162,
      "暧": 4163,
      "暨": 4164,
      "暫": 4165,
      "暮": 4166,
      "暴": 4167,
      "暹": 4168,
      "曆": 4169,
      "曇": 4170,
      "曈": 4171,
      "曉": 4172,
      "曙": 4173,
      "曛": 4174,
      "曜": 4175,
      "曝": 4176,
      "曦": 4177,
      "曬": 4178,
      "曰": 4179,
      "曲": 4180,
      "曳": 4181,
      "更": 4182,
      "書": 4183,
      "曹": 4184,
      "曼": 4185,
      "曾": 4186,
      "替": 4187,
      "最": 4188,
      "會": 4189,
      "月": 4190,
      "有": 4191,
      "朋": 4192,
      "服": 4193,
      "朐": 4194,
      "朔": 4195,
      "朗": 4196,
      "望": 4197,
      "朝": 4198,
      "期": 4199,
      "朦": 4200,
      "木": 4201,
      "朩": 4202,
      "未": 4203,
      "末": 4204,
      "本": 4205,
      "札": 4206,
      "朮": 4207,
      "术": 4208,
      "朱": 4209,
      "朴": 4210,
      "朵": 4211,
      "机": 4212,
      "朽": 4213,
      "杀": 4214,
      "杂": 4215,
      "权": 4216,
      "杆": 4217,
      "杈": 4218,
      "杉": 4219,
      "李": 4220,
      "杏": 4221,
      "材": 4222,
      "村": 4223,
      "杓": 4224,
      "杖": 4225,
      "杜": 4226,
      "杞": 4227,
      "束": 4228,
      "杠": 4229,
      "条": 4230,
      "来": 4231,
      "杧": 4232,
      "杨": 4233,
      "杪": 4234,
      "杭": 4235,
      "杮": 4236,
      "杯": 4237,
      "杰": 4238,
      "東": 4239,
      "杲": 4240,
      "杳": 4241,
      "杵": 4242,
      "杷": 4243,
      "松": 4244,
      "板": 4245,
      "极": 4246,
      "构": 4247,
      "枇": 4248,
      "枉": 4249,
      "枋": 4250,
      "析": 4251,
      "枕": 4252,
      "林": 4253,
      "枚": 4254,
      "果": 4255,
      "枝": 4256,
      "枞": 4257,
      "枢": 4258,
      "枣": 4259,
      "枪": 4260,
      "枫": 4261,
      "枭": 4262,
      "枯": 4263,
      "枳": 4264,
      "架": 4265,
      "枷": 4266,
      "枸": 4267,
      "柄": 4268,
      "柊": 4269,
      "柏": 4270,
      "某": 4271,
      "柑": 4272,
      "柒": 4273,
      "染": 4274,
      "柔": 4275,
      "柘": 4276,
      "柚": 4277,
      "柜": 4278,
      "柞": 4279,
      "柠": 4280,
      "柢": 4281,
      "查": 4282,
      "柩": 4283,
      "柬": 4284,
      "柯": 4285,
      "柱": 4286,
      "柳": 4287,
      "柴": 4288,
      "柵": 4289,
      "査": 4290,
      "柾": 4291,
      "柿": 4292,
      "栀": 4293,
      "栃": 4294,
      "栄": 4295,
      "栅": 4296,
      "标": 4297,
      "栈": 4298,
      "栉": 4299,
      "栋": 4300,
      "栎": 4301,
      "栏": 4302,
      "树": 4303,
      "栓": 4304,
      "栖": 4305,
      "栗": 4306,
      "校": 4307,
      "栩": 4308,
      "株": 4309,
      "栫": 4310,
      "栱": 4311,
      "样": 4312,
      "核": 4313,
      "根": 4314,
      "格": 4315,
      "栽": 4316,
      "桀": 4317,
      "桁": 4318,
      "桂": 4319,
      "桃": 4320,
      "桅": 4321,
      "框": 4322,
      "案": 4323,
      "桉": 4324,
      "桌": 4325,
      "桎": 4326,
      "桐": 4327,
      "桑": 4328,
      "桓": 4329,
      "桔": 4330,
      "桕": 4331,
      "桜": 4332,
      "桠": 4333,
      "桡": 4334,
      "桢": 4335,
      "档": 4336,
      "桥": 4337,
      "桦": 4338,
      "桧": 4339,
      "桨": 4340,
      "桩": 4341,
      "桶": 4342,
      "桷": 4343,
      "桿": 4344,
      "梁": 4345,
      "梅": 4346,
      "梆": 4347,
      "梏": 4348,
      "梓": 4349,
      "梗": 4350,
      "條": 4351,
      "梢": 4352,
      "梣": 4353,
      "梦": 4354,
      "梧": 4355,
      "梨": 4356,
      "梭": 4357,
      "梯": 4358,
      "械": 4359,
      "梳": 4360,
      "梵": 4361,
      "检": 4362,
      "棂": 4363,
      "棄": 4364,
      "棉": 4365,
      "棋": 4366,
      "棍": 4367,
      "棒": 4368,
      "棕": 4369,
      "棘": 4370,
      "棚": 4371,
      "棟": 4372,
      "棠": 4373,
      "棣": 4374,
      "棧": 4375,
      "森": 4376,
      "棰": 4377,
      "棱": 4378,
      "棲": 4379,
      "棵": 4380,
      "棹": 4381,
      "棺": 4382,
      "椁": 4383,
      "椅": 4384,
      "椋": 4385,
      "植": 4386,
      "椎": 4387,
      "椒": 4388,
      "検": 4389,
      "椭": 4390,
      "椰": 4391,
      "椴": 4392,
      "椹": 4393,
      "椽": 4394,
      "椿": 4395,
      "楂": 4396,
      "楊": 4397,
      "楔": 4398,
      "楚": 4399,
      "楝": 4400,
      "楞": 4401,
      "楠": 4402,
      "楢": 4403,
      "楣": 4404,
      "楫": 4405,
      "業": 4406,
      "楮": 4407,
      "極": 4408,
      "楷": 4409,
      "楸": 4410,
      "楹": 4411,
      "楼": 4412,
      "楽": 4413,
      "概": 4414,
      "榄": 4415,
      "榆": 4416,
      "榈": 4417,
      "榉": 4418,
      "榔": 4419,
      "榕": 4420,
      "榛": 4421,
      "榜": 4422,
      "榧": 4423,
      "榨": 4424,
      "榫": 4425,
      "榭": 4426,
      "榮": 4427,
      "榴": 4428,
      "榷": 4429,
      "榻": 4430,
      "槁": 4431,
      "槃": 4432,
      "構": 4433,
      "槌": 4434,
      "槎": 4435,
      "槐": 4436,
      "槓": 4437,
      "様": 4438,
      "槛": 4439,
      "槟": 4440,
      "槭": 4441,
      "槽": 4442,
      "槿": 4443,
      "樂": 4444,
      "樊": 4445,
      "樑": 4446,
      "樓": 4447,
      "樘": 4448,
      "標": 4449,
      "樟": 4450,
      "模": 4451,
      "樣": 4452,
      "樨": 4453,
      "権": 4454,
      "横": 4455,
      "樯": 4456,
      "樱": 4457,
      "樵": 4458,
      "樹": 4459,
      "樽": 4460,
      "樾": 4461,
      "橄": 4462,
      "橇": 4463,
      "橋": 4464,
      "橐": 4465,
      "橘": 4466,
      "橙": 4467,
      "機": 4468,
      "橡": 4469,
      "橢": 4470,
      "橤": 4471,
      "橱": 4472,
      "橹": 4473,
      "橼": 4474,
      "檀": 4475,
      "檎": 4476,
      "檐": 4477,
      "檗": 4478,
      "檢": 4479,
      "檩": 4480,
      "檬": 4481,
      "檸": 4482,
      "櫂": 4483,
      "櫃": 4484,
      "櫥": 4485,
      "櫸": 4486,
      "櫻": 4487,
      "欄": 4488,
      "權": 4489,
      "欖": 4490,
      "欠": 4491,
      "次": 4492,
      "欢": 4493,
      "欣": 4494,
      "欤": 4495,
      "欧": 4496,
      "欲": 4497,
      "欸": 4498,
      "欺": 4499,
      "款": 4500,
      "歆": 4501,
      "歇": 4502,
      "歉": 4503,
      "歌": 4504,
      "歐": 4505,
      "歙": 4506,
      "歡": 4507,
      "止": 4508,
      "正": 4509,
      "此": 4510,
      "步": 4511,
      "武": 4512,
      "歧": 4513,
      "歩": 4514,
      "歪": 4515,
      "歲": 4516,
      "歳": 4517,
      "歴": 4518,
      "歷": 4519,
      "歸": 4520,
      "歹": 4521,
      "死": 4522,
      "歼": 4523,
      "殃": 4524,
      "殆": 4525,
      "殇": 4526,
      "殉": 4527,
      "殊": 4528,
      "残": 4529,
      "殒": 4530,
      "殓": 4531,
      "殕": 4532,
      "殖": 4533,
      "殘": 4534,
      "殚": 4535,
      "殡": 4536,
      "殳": 4537,
      "殴": 4538,
      "段": 4539,
      "殷": 4540,
      "殺": 4541,
      "殻": 4542,
      "殼": 4543,
      "殿": 4544,
      "毀": 4545,
      "毁": 4546,
      "毂": 4547,
      "毅": 4548,
      "毋": 4549,
      "母": 4550,
      "毎": 4551,
      "每": 4552,
      "毒": 4553,
      "毓": 4554,
      "比": 4555,
      "毕": 4556,
      "毗": 4557,
      "毙": 4558,
      "毛": 4559,
      "毡": 4560,
      "毫": 4561,
      "毯": 4562,
      "毽": 4563,
      "氅": 4564,
      "氏": 4565,
      "民": 4566,
      "氓": 4567,
      "气": 4568,
      "氖": 4569,
      "気": 4570,
      "氘": 4571,
      "氙": 4572,
      "氚": 4573,
      "氛": 4574,
      "氟": 4575,
      "氡": 4576,
      "氢": 4577,
      "氣": 4578,
      "氤": 4579,
      "氦": 4580,
      "氧": 4581,
      "氨": 4582,
      "氩": 4583,
      "氪": 4584,
      "氫": 4585,
      "氮": 4586,
      "氯": 4587,
      "氰": 4588,
      "氲": 4589,
      "水": 4590,
      "氵": 4591,
      "永": 4592,
      "氽": 4593,
      "汀": 4594,
      "汁": 4595,
      "求": 4596,
      "汆": 4597,
      "汇": 4598,
      "汉": 4599,
      "汐": 4600,
      "汕": 4601,
      "汗": 4602,
      "汛": 4603,
      "汝": 4604,
      "汞": 4605,
      "江": 4606,
      "池": 4607,
      "污": 4608,
      "汤": 4609,
      "汨": 4610,
      "汩": 4611,
      "汪": 4612,
      "汰": 4613,
      "汲": 4614,
      "汴": 4615,
      "汶": 4616,
      "汹": 4617,
      "決": 4618,
      "汽": 4619,
      "汾": 4620,
      "沁": 4621,
      "沂": 4622,
      "沃": 4623,
      "沅": 4624,
      "沈": 4625,
      "沉": 4626,
      "沌": 4627,
      "沏": 4628,
      "沐": 4629,
      "沒": 4630,
      "沓": 4631,
      "沖": 4632,
      "沙": 4633,
      "沛": 4634,
      "沟": 4635,
      "没": 4636,
      "沥": 4637,
      "沦": 4638,
      "沧": 4639,
      "沪": 4640,
      "沫": 4641,
      "沬": 4642,
      "沭": 4643,
      "沮": 4644,
      "沱": 4645,
      "河": 4646,
      "沸": 4647,
      "油": 4648,
      "治": 4649,
      "沼": 4650,
      "沽": 4651,
      "沾": 4652,
      "沿": 4653,
      "況": 4654,
      "泄": 4655,
      "泅": 4656,
      "泉": 4657,
      "泊": 4658,
      "泌": 4659,
      "泓": 4660,
      "法": 4661,
      "泗": 4662,
      "泛": 4663,
      "泞": 4664,
      "泠": 4665,
      "泡": 4666,
      "波": 4667,
      "泣": 4668,
      "泥": 4669,
      "注": 4670,
      "泪": 4671,
      "泮": 4672,
      "泯": 4673,
      "泰": 4674,
      "泱": 4675,
      "泳": 4676,
      "泵": 4677,
      "泷": 4678,
      "泸": 4679,
      "泻": 4680,
      "泼": 4681,
      "泽": 4682,
      "泾": 4683,
      "洁": 4684,
      "洄": 4685,
      "洇": 4686,
      "洋": 4687,
      "洌": 4688,
      "洒": 4689,
      "洗": 4690,
      "洙": 4691,
      "洛": 4692,
      "洞": 4693,
      "津": 4694,
      "洪": 4695,
      "洮": 4696,
      "洱": 4697,
      "洲": 4698,
      "洵": 4699,
      "活": 4700,
      "洼": 4701,
      "洽": 4702,
      "派": 4703,
      "流": 4704,
      "浃": 4705,
      "浅": 4706,
      "浆": 4707,
      "浇": 4708,
      "浊": 4709,
      "测": 4710,
      "济": 4711,
      "浏": 4712,
      "浐": 4713,
      "浑": 4714,
      "浒": 4715,
      "浓": 4716,
      "浔": 4717,
      "浙": 4718,
      "浚": 4719,
      "浜": 4720,
      "浣": 4721,
      "浥": 4722,
      "浦": 4723,
      "浩": 4724,
      "浪": 4725,
      "浮": 4726,
      "浴": 4727,
      "海": 4728,
      "浸": 4729,
      "涂": 4730,
      "涅": 4731,
      "消": 4732,
      "涉": 4733,
      "涌": 4734,
      "涎": 4735,
      "涓": 4736,
      "涔": 4737,
      "涕": 4738,
      "涘": 4739,
      "涙": 4740,
      "涛": 4741,
      "涝": 4742,
      "涞": 4743,
      "涟": 4744,
      "涡": 4745,
      "涣": 4746,
      "涤": 4747,
      "润": 4748,
      "涧": 4749,
      "涨": 4750,
      "涩": 4751,
      "涪": 4752,
      "涮": 4753,
      "涯": 4754,
      "液": 4755,
      "涵": 4756,
      "涸": 4757,
      "涼": 4758,
      "涿": 4759,
      "淀": 4760,
      "淄": 4761,
      "淅": 4762,
      "淆": 4763,
      "淇": 4764,
      "淋": 4765,
      "淌": 4766,
      "淑": 4767,
      "淒": 4768,
      "淖": 4769,
      "淘": 4770,
      "淙": 4771,
      "淝": 4772,
      "淞": 4773,
      "淡": 4774,
      "淤": 4775,
      "淦": 4776,
      "淨": 4777,
      "淫": 4778,
      "淬": 4779,
      "淮": 4780,
      "深": 4781,
      "淳": 4782,
      "混": 4783,
      "淹": 4784,
      "淺": 4785,
      "添": 4786,
      "淼": 4787,
      "清": 4788,
      "渆": 4789,
      "済": 4790,
      "渉": 4791,
      "渊": 4792,
      "渋": 4793,
      "渌": 4794,
      "渍": 4795,
      "渎": 4796,
      "渐": 4797,
      "渑": 4798,
      "渔": 4799,
      "渗": 4800,
      "渙": 4801,
      "渚": 4802,
      "減": 4803,
      "渝": 4804,
      "渠": 4805,
      "渡": 4806,
      "渣": 4807,
      "渤": 4808,
      "渥": 4809,
      "温": 4810,
      "測": 4811,
      "渭": 4812,
      "港": 4813,
      "渲": 4814,
      "渴": 4815,
      "游": 4816,
      "渺": 4817,
      "湃": 4818,
      "湄": 4819,
      "湊": 4820,
      "湍": 4821,
      "湎": 4822,
      "湖": 4823,
      "湘": 4824,
      "湛": 4825,
      "湟": 4826,
      "湧": 4827,
      "湫": 4828,
      "湮": 4829,
      "湯": 4830,
      "湲": 4831,
      "湾": 4832,
      "湿": 4833,
      "満": 4834,
      "溃": 4835,
      "溅": 4836,
      "溉": 4837,
      "溏": 4838,
      "源": 4839,
      "準": 4840,
      "溜": 4841,
      "溝": 4842,
      "溟": 4843,
      "溢": 4844,
      "溥": 4845,
      "溧": 4846,
      "溪": 4847,
      "溫": 4848,
      "溯": 4849,
      "溴": 4850,
      "溶": 4851,
      "溺": 4852,
      "滁": 4853,
      "滂": 4854,
      "滅": 4855,
      "滇": 4856,
      "滋": 4857,
      "滑": 4858,
      "滓": 4859,
      "滔": 4860,
      "滕": 4861,
      "滗": 4862,
      "滚": 4863,
      "滞": 4864,
      "滟": 4865,
      "满": 4866,
      "滢": 4867,
      "滤": 4868,
      "滥": 4869,
      "滦": 4870,
      "滨": 4871,
      "滩": 4872,
      "滯": 4873,
      "滲": 4874,
      "滴": 4875,
      "滾": 4876,
      "滿": 4877,
      "漁": 4878,
      "漂": 4879,
      "漆": 4880,
      "漉": 4881,
      "漏": 4882,
      "漓": 4883,
      "演": 4884,
      "漕": 4885,
      "漠": 4886,
      "漢": 4887,
      "漩": 4888,
      "漪": 4889,
      "漫": 4890,
      "漬": 4891,
      "漯": 4892,
      "漱": 4893,
      "漳": 4894,
      "漶": 4895,
      "漸": 4896,
      "漾": 4897,
      "漿": 4898,
      "潁": 4899,
      "潇": 4900,
      "潋": 4901,
      "潍": 4902,
      "潑": 4903,
      "潔": 4904,
      "潘": 4905,
      "潛": 4906,
      "潜": 4907,
      "潞": 4908,
      "潟": 4909,
      "潢": 4910,
      "潤": 4911,
      "潦": 4912,
      "潭": 4913,
      "潮": 4914,
      "潰": 4915,
      "潴": 4916,
      "潸": 4917,
      "潺": 4918,
      "潼": 4919,
      "澄": 4920,
      "澆": 4921,
      "澈": 4922,
      "澍": 4923,
      "澎": 4924,
      "澜": 4925,
      "澡": 4926,
      "澤": 4927,
      "澱": 4928,
      "澳": 4929,
      "澶": 4930,
      "澹": 4931,
      "激": 4932,
      "濂": 4933,
      "濃": 4934,
      "濉": 4935,
      "濑": 4936,
      "濒": 4937,
      "濕": 4938,
      "濛": 4939,
      "濞": 4940,
      "濟": 4941,
      "濠": 4942,
      "濡": 4943,
      "濤": 4944,
      "濫": 4945,
      "濮": 4946,
      "濯": 4947,
      "濱": 4948,
      "濾": 4949,
      "瀏": 4950,
      "瀑": 4951,
      "瀚": 4952,
      "瀛": 4953,
      "瀝": 4954,
      "瀣": 4955,
      "瀧": 4956,
      "瀬": 4957,
      "瀾": 4958,
      "灌": 4959,
      "灏": 4960,
      "灑": 4961,
      "灘": 4962,
      "灞": 4963,
      "灣": 4964,
      "火": 4965,
      "灬": 4966,
      "灭": 4967,
      "灯": 4968,
      "灰": 4969,
      "灵": 4970,
      "灶": 4971,
      "灸": 4972,
      "灼": 4973,
      "災": 4974,
      "灾": 4975,
      "灿": 4976,
      "炀": 4977,
      "炁": 4978,
      "炅": 4979,
      "炉": 4980,
      "炊": 4981,
      "炎": 4982,
      "炒": 4983,
      "炔": 4984,
      "炕": 4985,
      "炖": 4986,
      "炙": 4987,
      "炜": 4988,
      "炝": 4989,
      "炫": 4990,
      "炬": 4991,
      "炭": 4992,
      "炮": 4993,
      "炯": 4994,
      "炳": 4995,
      "炷": 4996,
      "炸": 4997,
      "点": 4998,
      "為": 4999,
      "炼": 5000,
      "炽": 5001,
      "烁": 5002,
      "烂": 5003,
      "烃": 5004,
      "烈": 5005,
      "烊": 5006,
      "烏": 5007,
      "烘": 5008,
      "烙": 5009,
      "烛": 5010,
      "烟": 5011,
      "烤": 5012,
      "烦": 5013,
      "烧": 5014,
      "烨": 5015,
      "烩": 5016,
      "烫": 5017,
      "烬": 5018,
      "热": 5019,
      "烯": 5020,
      "烷": 5021,
      "烹": 5022,
      "烽": 5023,
      "焉": 5024,
      "焊": 5025,
      "焓": 5026,
      "焕": 5027,
      "焖": 5028,
      "焗": 5029,
      "焙": 5030,
      "焚": 5031,
      "焜": 5032,
      "焠": 5033,
      "無": 5034,
      "焦": 5035,
      "焯": 5036,
      "焰": 5037,
      "焱": 5038,
      "然": 5039,
      "焼": 5040,
      "煅": 5041,
      "煊": 5042,
      "煌": 5043,
      "煎": 5044,
      "煖": 5045,
      "煙": 5046,
      "煜": 5047,
      "煞": 5048,
      "煤": 5049,
      "煦": 5050,
      "照": 5051,
      "煨": 5052,
      "煩": 5053,
      "煮": 5054,
      "煲": 5055,
      "煳": 5056,
      "煸": 5057,
      "煽": 5058,
      "熄": 5059,
      "熊": 5060,
      "熏": 5061,
      "熔": 5062,
      "熘": 5063,
      "熙": 5064,
      "熜": 5065,
      "熟": 5066,
      "熠": 5067,
      "熨": 5068,
      "熬": 5069,
      "熱": 5070,
      "熵": 5071,
      "熹": 5072,
      "熾": 5073,
      "燃": 5074,
      "燈": 5075,
      "燉": 5076,
      "燊": 5077,
      "燎": 5078,
      "燒": 5079,
      "燕": 5080,
      "燚": 5081,
      "營": 5082,
      "燥": 5083,
      "燦": 5084,
      "燧": 5085,
      "燭": 5086,
      "燮": 5087,
      "燴": 5088,
      "燻": 5089,
      "爆": 5090,
      "爍": 5091,
      "爐": 5092,
      "爛": 5093,
      "爪": 5094,
      "爫": 5095,
      "爬": 5096,
      "爭": 5097,
      "爱": 5098,
      "爲": 5099,
      "爵": 5100,
      "父": 5101,
      "爷": 5102,
      "爸": 5103,
      "爹": 5104,
      "爻": 5105,
      "爽": 5106,
      "爾": 5107,
      "爿": 5108,
      "牀": 5109,
      "牆": 5110,
      "片": 5111,
      "版": 5112,
      "牌": 5113,
      "牍": 5114,
      "牒": 5115,
      "牙": 5116,
      "牛": 5117,
      "牝": 5118,
      "牟": 5119,
      "牠": 5120,
      "牡": 5121,
      "牢": 5122,
      "牦": 5123,
      "牧": 5124,
      "物": 5125,
      "牲": 5126,
      "牴": 5127,
      "牵": 5128,
      "特": 5129,
      "牺": 5130,
      "牽": 5131,
      "犀": 5132,
      "犁": 5133,
      "犄": 5134,
      "犇": 5135,
      "犊": 5136,
      "犍": 5137,
      "犒": 5138,
      "犟": 5139,
      "犢": 5140,
      "犧": 5141,
      "犬": 5142,
      "犭": 5143,
      "犯": 5144,
      "犰": 5145,
      "状": 5146,
      "犷": 5147,
      "犸": 5148,
      "犹": 5149,
      "狀": 5150,
      "狂": 5151,
      "狄": 5152,
      "狆": 5153,
      "狈": 5154,
      "狍": 5155,
      "狐": 5156,
      "狒": 5157,
      "狗": 5158,
      "狘": 5159,
      "狙": 5160,
      "狞": 5161,
      "狠": 5162,
      "狡": 5163,
      "狨": 5164,
      "狩": 5165,
      "独": 5166,
      "狭": 5167,
      "狮": 5168,
      "狯": 5169,
      "狰": 5170,
      "狱": 5171,
      "狳": 5172,
      "狷": 5173,
      "狸": 5174,
      "狼": 5175,
      "猁": 5176,
      "猎": 5177,
      "猕": 5178,
      "猖": 5179,
      "猛": 5180,
      "猜": 5181,
      "猝": 5182,
      "猞": 5183,
      "猥": 5184,
      "猩": 5185,
      "猪": 5186,
      "猫": 5187,
      "猬": 5188,
      "献": 5189,
      "猯": 5190,
      "猱": 5191,
      "猴": 5192,
      "猷": 5193,
      "猾": 5194,
      "猿": 5195,
      "獄": 5196,
      "獅": 5197,
      "獎": 5198,
      "獏": 5199,
      "獒": 5200,
      "獗": 5201,
      "獠": 5202,
      "獣": 5203,
      "獨": 5204,
      "獭": 5205,
      "獲": 5206,
      "獴": 5207,
      "獵": 5208,
      "獸": 5209,
      "獻": 5210,
      "獾": 5211,
      "玄": 5212,
      "率": 5213,
      "玉": 5214,
      "王": 5215,
      "玑": 5216,
      "玖": 5217,
      "玘": 5218,
      "玛": 5219,
      "玟": 5220,
      "玥": 5221,
      "玩": 5222,
      "玫": 5223,
      "玮": 5224,
      "环": 5225,
      "现": 5226,
      "玲": 5227,
      "玳": 5228,
      "玷": 5229,
      "玺": 5230,
      "玻": 5231,
      "珀": 5232,
      "珂": 5233,
      "珅": 5234,
      "珈": 5235,
      "珉": 5236,
      "珊": 5237,
      "珍": 5238,
      "珐": 5239,
      "珑": 5240,
      "珙": 5241,
      "珞": 5242,
      "珠": 5243,
      "珥": 5244,
      "珩": 5245,
      "珪": 5246,
      "班": 5247,
      "珲": 5248,
      "珺": 5249,
      "現": 5250,
      "球": 5251,
      "琅": 5252,
      "理": 5253,
      "琉": 5254,
      "琊": 5255,
      "琍": 5256,
      "琏": 5257,
      "琐": 5258,
      "琛": 5259,
      "琢": 5260,
      "琥": 5261,
      "琦": 5262,
      "琪": 5263,
      "琬": 5264,
      "琮": 5265,
      "琰": 5266,
      "琳": 5267,
      "琴": 5268,
      "琵": 5269,
      "琶": 5270,
      "琼": 5271,
      "瑁": 5272,
      "瑄": 5273,
      "瑋": 5274,
      "瑕": 5275,
      "瑙": 5276,
      "瑚": 5277,
      "瑛": 5278,
      "瑜": 5279,
      "瑞": 5280,
      "瑟": 5281,
      "瑠": 5282,
      "瑣": 5283,
      "瑩": 5284,
      "瑪": 5285,
      "瑭": 5286,
      "瑰": 5287,
      "瑶": 5288,
      "瑷": 5289,
      "瑾": 5290,
      "璀": 5291,
      "璃": 5292,
      "璇": 5293,
      "璋": 5294,
      "璎": 5295,
      "璐": 5296,
      "璜": 5297,
      "璞": 5298,
      "璟": 5299,
      "璠": 5300,
      "璧": 5301,
      "璨": 5302,
      "環": 5303,
      "瓊": 5304,
      "瓒": 5305,
      "瓘": 5306,
      "瓜": 5307,
      "瓢": 5308,
      "瓣": 5309,
      "瓤": 5310,
      "瓦": 5311,
      "瓮": 5312,
      "瓯": 5313,
      "瓶": 5314,
      "瓷": 5315,
      "甄": 5316,
      "甍": 5317,
      "甑": 5318,
      "甕": 5319,
      "甗": 5320,
      "甘": 5321,
      "甙": 5322,
      "甚": 5323,
      "甜": 5324,
      "生": 5325,
      "產": 5326,
      "産": 5327,
      "甥": 5328,
      "甦": 5329,
      "用": 5330,
      "甩": 5331,
      "甪": 5332,
      "甫": 5333,
      "甬": 5334,
      "甯": 5335,
      "田": 5336,
      "由": 5337,
      "甲": 5338,
      "申": 5339,
      "电": 5340,
      "男": 5341,
      "甸": 5342,
      "町": 5343,
      "画": 5344,
      "甾": 5345,
      "畅": 5346,
      "界": 5347,
      "畏": 5348,
      "畐": 5349,
      "畑": 5350,
      "畔": 5351,
      "留": 5352,
      "畜": 5353,
      "畢": 5354,
      "略": 5355,
      "畦": 5356,
      "番": 5357,
      "畫": 5358,
      "異": 5359,
      "畲": 5360,
      "畳": 5361,
      "畴": 5362,
      "當": 5363,
      "畸": 5364,
      "畿": 5365,
      "疆": 5366,
      "疊": 5367,
      "疋": 5368,
      "疏": 5369,
      "疑": 5370,
      "疒": 5371,
      "疖": 5372,
      "疗": 5373,
      "疙": 5374,
      "疚": 5375,
      "疝": 5376,
      "疟": 5377,
      "疡": 5378,
      "疣": 5379,
      "疤": 5380,
      "疥": 5381,
      "疫": 5382,
      "疮": 5383,
      "疯": 5384,
      "疱": 5385,
      "疲": 5386,
      "疳": 5387,
      "疴": 5388,
      "疵": 5389,
      "疸": 5390,
      "疹": 5391,
      "疼": 5392,
      "疽": 5393,
      "疾": 5394,
      "痂": 5395,
      "病": 5396,
      "症": 5397,
      "痈": 5398,
      "痉": 5399,
      "痊": 5400,
      "痍": 5401,
      "痒": 5402,
      "痔": 5403,
      "痕": 5404,
      "痘": 5405,
      "痙": 5406,
      "痛": 5407,
      "痞": 5408,
      "痢": 5409,
      "痣": 5410,
      "痤": 5411,
      "痧": 5412,
      "痨": 5413,
      "痪": 5414,
      "痫": 5415,
      "痰": 5416,
      "痱": 5417,
      "痲": 5418,
      "痴": 5419,
      "痹": 5420,
      "瘀": 5421,
      "瘁": 5422,
      "瘋": 5423,
      "瘍": 5424,
      "瘙": 5425,
      "瘟": 5426,
      "瘠": 5427,
      "瘢": 5428,
      "瘤": 5429,
      "瘦": 5430,
      "瘩": 5431,
      "瘪": 5432,
      "瘫": 5433,
      "瘴": 5434,
      "瘵": 5435,
      "瘸": 5436,
      "瘾": 5437,
      "癀": 5438,
      "療": 5439,
      "癌": 5440,
      "癔": 5441,
      "癖": 5442,
      "癜": 5443,
      "癞": 5444,
      "癣": 5445,
      "癫": 5446,
      "癶": 5447,
      "癸": 5448,
      "発": 5449,
      "登": 5450,
      "發": 5451,
      "白": 5452,
      "百": 5453,
      "皂": 5454,
      "的": 5455,
      "皆": 5456,
      "皇": 5457,
      "皈": 5458,
      "皋": 5459,
      "皎": 5460,
      "皑": 5461,
      "皓": 5462,
      "皖": 5463,
      "皙": 5464,
      "皮": 5465,
      "皱": 5466,
      "皲": 5467,
      "皴": 5468,
      "皿": 5469,
      "盂": 5470,
      "盅": 5471,
      "盆": 5472,
      "盈": 5473,
      "益": 5474,
      "盎": 5475,
      "盏": 5476,
      "盐": 5477,
      "监": 5478,
      "盒": 5479,
      "盔": 5480,
      "盖": 5481,
      "盗": 5482,
      "盘": 5483,
      "盛": 5484,
      "盜": 5485,
      "盞": 5486,
      "盟": 5487,
      "盡": 5488,
      "監": 5489,
      "盤": 5490,
      "盥": 5491,
      "盧": 5492,
      "盪": 5493,
      "目": 5494,
      "盯": 5495,
      "盲": 5496,
      "直": 5497,
      "相": 5498,
      "盹": 5499,
      "盼": 5500,
      "盾": 5501,
      "省": 5502,
      "眈": 5503,
      "眉": 5504,
      "看": 5505,
      "県": 5506,
      "眚": 5507,
      "真": 5508,
      "眠": 5509,
      "眨": 5510,
      "眩": 5511,
      "眯": 5512,
      "眶": 5513,
      "眷": 5514,
      "眸": 5515,
      "眺": 5516,
      "眼": 5517,
      "眾": 5518,
      "着": 5519,
      "睁": 5520,
      "睇": 5521,
      "睐": 5522,
      "睑": 5523,
      "睛": 5524,
      "睜": 5525,
      "睡": 5526,
      "睢": 5527,
      "督": 5528,
      "睥": 5529,
      "睦": 5530,
      "睨": 5531,
      "睫": 5532,
      "睬": 5533,
      "睹": 5534,
      "睽": 5535,
      "睾": 5536,
      "睿": 5537,
      "瞄": 5538,
      "瞅": 5539,
      "瞋": 5540,
      "瞌": 5541,
      "瞎": 5542,
      "瞑": 5543,
      "瞒": 5544,
      "瞟": 5545,
      "瞠": 5546,
      "瞥": 5547,
      "瞧": 5548,
      "瞩": 5549,
      "瞪": 5550,
      "瞬": 5551,
      "瞭": 5552,
      "瞰": 5553,
      "瞳": 5554,
      "瞻": 5555,
      "瞽": 5556,
      "瞿": 5557,
      "矍": 5558,
      "矏": 5559,
      "矗": 5560,
      "矛": 5561,
      "矜": 5562,
      "矢": 5563,
      "矣": 5564,
      "知": 5565,
      "矩": 5566,
      "矫": 5567,
      "短": 5568,
      "矮": 5569,
      "石": 5570,
      "矶": 5571,
      "矸": 5572,
      "矽": 5573,
      "矾": 5574,
      "矿": 5575,
      "码": 5576,
      "砂": 5577,
      "砉": 5578,
      "砌": 5579,
      "砍": 5580,
      "砒": 5581,
      "研": 5582,
      "砖": 5583,
      "砗": 5584,
      "砚": 5585,
      "砜": 5586,
      "砝": 5587,
      "砢": 5588,
      "砥": 5589,
      "砧": 5590,
      "砭": 5591,
      "砰": 5592,
      "砲": 5593,
      "破": 5594,
      "砷": 5595,
      "砸": 5596,
      "砹": 5597,
      "砺": 5598,
      "砻": 5599,
      "砼": 5600,
      "砾": 5601,
      "础": 5602,
      "硅": 5603,
      "硒": 5604,
      "硕": 5605,
      "硝": 5606,
      "硫": 5607,
      "硬": 5608,
      "确": 5609,
      "硼": 5610,
      "碁": 5611,
      "碇": 5612,
      "碉": 5613,
      "碌": 5614,
      "碍": 5615,
      "碎": 5616,
      "碑": 5617,
      "碕": 5618,
      "碗": 5619,
      "碘": 5620,
      "碚": 5621,
      "碛": 5622,
      "碜": 5623,
      "碟": 5624,
      "碣": 5625,
      "碧": 5626,
      "碩": 5627,
      "碰": 5628,
      "碱": 5629,
      "碲": 5630,
      "碳": 5631,
      "碴": 5632,
      "確": 5633,
      "碼": 5634,
      "碾": 5635,
      "磁": 5636,
      "磅": 5637,
      "磊": 5638,
      "磋": 5639,
      "磐": 5640,
      "磕": 5641,
      "磚": 5642,
      "磨": 5643,
      "磬": 5644,
      "磯": 5645,
      "磲": 5646,
      "磷": 5647,
      "磺": 5648,
      "礁": 5649,
      "礎": 5650,
      "礙": 5651,
      "礦": 5652,
      "礫": 5653,
      "礴": 5654,
      "示": 5655,
      "礻": 5656,
      "礼": 5657,
      "社": 5658,
      "祀": 5659,
      "祁": 5660,
      "祂": 5661,
      "祇": 5662,
      "祈": 5663,
      "祉": 5664,
      "祎": 5665,
      "祐": 5666,
      "祕": 5667,
      "祖": 5668,
      "祗": 5669,
      "祚": 5670,
      "祛": 5671,
      "祜": 5672,
      "祝": 5673,
      "神": 5674,
      "祟": 5675,
      "祠": 5676,
      "祥": 5677,
      "票": 5678,
      "祭": 5679,
      "祯": 5680,
      "祷": 5681,
      "祸": 5682,
      "祺": 5683,
      "祼": 5684,
      "禀": 5685,
      "禁": 5686,
      "禄": 5687,
      "禅": 5688,
      "禋": 5689,
      "福": 5690,
      "禛": 5691,
      "禧": 5692,
      "禪": 5693,
      "禮": 5694,
      "禱": 5695,
      "禳": 5696,
      "禹": 5697,
      "禺": 5698,
      "离": 5699,
      "禽": 5700,
      "禾": 5701,
      "秀": 5702,
      "私": 5703,
      "秃": 5704,
      "秆": 5705,
      "秉": 5706,
      "秋": 5707,
      "种": 5708,
      "科": 5709,
      "秒": 5710,
      "秘": 5711,
      "租": 5712,
      "秤": 5713,
      "秦": 5714,
      "秧": 5715,
      "秩": 5716,
      "积": 5717,
      "称": 5718,
      "秸": 5719,
      "移": 5720,
      "秽": 5721,
      "稀": 5722,
      "稅": 5723,
      "程": 5724,
      "稍": 5725,
      "税": 5726,
      "稔": 5727,
      "稗": 5728,
      "稚": 5729,
      "稜": 5730,
      "稞": 5731,
      "稠": 5732,
      "稣": 5733,
      "種": 5734,
      "稱": 5735,
      "稳": 5736,
      "稷": 5737,
      "稹": 5738,
      "稻": 5739,
      "稼": 5740,
      "稽": 5741,
      "稿": 5742,
      "穀": 5743,
      "穂": 5744,
      "穆": 5745,
      "穌": 5746,
      "積": 5747,
      "穎": 5748,
      "穏": 5749,
      "穑": 5750,
      "穗": 5751,
      "穩": 5752,
      "穫": 5753,
      "穴": 5754,
      "究": 5755,
      "穷": 5756,
      "穹": 5757,
      "空": 5758,
      "穿": 5759,
      "突": 5760,
      "窃": 5761,
      "窄": 5762,
      "窈": 5763,
      "窍": 5764,
      "窑": 5765,
      "窒": 5766,
      "窕": 5767,
      "窖": 5768,
      "窗": 5769,
      "窘": 5770,
      "窜": 5771,
      "窝": 5772,
      "窟": 5773,
      "窠": 5774,
      "窣": 5775,
      "窥": 5776,
      "窦": 5777,
      "窮": 5778,
      "窸": 5779,
      "窿": 5780,
      "竇": 5781,
      "竈": 5782,
      "竊": 5783,
      "立": 5784,
      "竖": 5785,
      "站": 5786,
      "竜": 5787,
      "竞": 5788,
      "竟": 5789,
      "章": 5790,
      "竣": 5791,
      "童": 5792,
      "竦": 5793,
      "竭": 5794,
      "端": 5795,
      "競": 5796,
      "竹": 5797,
      "竺": 5798,
      "竽": 5799,
      "竿": 5800,
      "笃": 5801,
      "笄": 5802,
      "笆": 5803,
      "笈": 5804,
      "笋": 5805,
      "笏": 5806,
      "笑": 5807,
      "笔": 5808,
      "笕": 5809,
      "笙": 5810,
      "笛": 5811,
      "笞": 5812,
      "笠": 5813,
      "笤": 5814,
      "符": 5815,
      "笨": 5816,
      "第": 5817,
      "笳": 5818,
      "笹": 5819,
      "笺": 5820,
      "笼": 5821,
      "筅": 5822,
      "筆": 5823,
      "等": 5824,
      "筋": 5825,
      "筏": 5826,
      "筐": 5827,
      "筑": 5828,
      "筒": 5829,
      "答": 5830,
      "策": 5831,
      "筚": 5832,
      "筛": 5833,
      "筜": 5834,
      "筝": 5835,
      "筮": 5836,
      "筱": 5837,
      "筲": 5838,
      "筵": 5839,
      "筷": 5840,
      "筹": 5841,
      "筼": 5842,
      "签": 5843,
      "简": 5844,
      "箇": 5845,
      "箍": 5846,
      "箏": 5847,
      "箐": 5848,
      "箔": 5849,
      "箕": 5850,
      "算": 5851,
      "箜": 5852,
      "管": 5853,
      "箨": 5854,
      "箩": 5855,
      "箪": 5856,
      "箫": 5857,
      "箬": 5858,
      "箭": 5859,
      "箱": 5860,
      "箴": 5861,
      "箸": 5862,
      "節": 5863,
      "篁": 5864,
      "範": 5865,
      "篆": 5866,
      "篇": 5867,
      "築": 5868,
      "篌": 5869,
      "篑": 5870,
      "篓": 5871,
      "篙": 5872,
      "篝": 5873,
      "篠": 5874,
      "篡": 5875,
      "篦": 5876,
      "篩": 5877,
      "篪": 5878,
      "篮": 5879,
      "篱": 5880,
      "篷": 5881,
      "篹": 5882,
      "篾": 5883,
      "簇": 5884,
      "簋": 5885,
      "簌": 5886,
      "簟": 5887,
      "簡": 5888,
      "簧": 5889,
      "簪": 5890,
      "簫": 5891,
      "簸": 5892,
      "簾": 5893,
      "簿": 5894,
      "籁": 5895,
      "籃": 5896,
      "籌": 5897,
      "籍": 5898,
      "籐": 5899,
      "籠": 5900,
      "籤": 5901,
      "籥": 5902,
      "米": 5903,
      "类": 5904,
      "籽": 5905,
      "粉": 5906,
      "粑": 5907,
      "粒": 5908,
      "粕": 5909,
      "粗": 5910,
      "粘": 5911,
      "粟": 5912,
      "粢": 5913,
      "粤": 5914,
      "粥": 5915,
      "粧": 5916,
      "粪": 5917,
      "粮": 5918,
      "粱": 5919,
      "粲": 5920,
      "粳": 5921,
      "粹": 5922,
      "粼": 5923,
      "粽": 5924,
      "精": 5925,
      "粿": 5926,
      "糁": 5927,
      "糅": 5928,
      "糊": 5929,
      "糍": 5930,
      "糕": 5931,
      "糖": 5932,
      "糗": 5933,
      "糙": 5934,
      "糜": 5935,
      "糟": 5936,
      "糠": 5937,
      "糧": 5938,
      "糨": 5939,
      "糬": 5940,
      "糯": 5941,
      "糰": 5942,
      "糸": 5943,
      "系": 5944,
      "紀": 5945,
      "約": 5946,
      "紅": 5947,
      "紊": 5948,
      "紋": 5949,
      "納": 5950,
      "紐": 5951,
      "純": 5952,
      "紗": 5953,
      "紙": 5954,
      "級": 5955,
      "紛": 5956,
      "素": 5957,
      "紡": 5958,
      "索": 5959,
      "紧": 5960,
      "紫": 5961,
      "紮": 5962,
      "累": 5963,
      "細": 5964,
      "紳": 5965,
      "紹": 5966,
      "終": 5967,
      "組": 5968,
      "経": 5969,
      "結": 5970,
      "絕": 5971,
      "絡": 5972,
      "給": 5973,
      "絨": 5974,
      "絮": 5975,
      "統": 5976,
      "絲": 5977,
      "絵": 5978,
      "絶": 5979,
      "綁": 5980,
      "綈": 5981,
      "經": 5982,
      "継": 5983,
      "続": 5984,
      "綜": 5985,
      "綠": 5986,
      "綦": 5987,
      "綫": 5988,
      "維": 5989,
      "綱": 5990,
      "網": 5991,
      "綴": 5992,
      "綺": 5993,
      "綾": 5994,
      "緊": 5995,
      "総": 5996,
      "緑": 5997,
      "緒": 5998,
      "線": 5999,
      "緣": 6000,
      "編": 6001,
      "緩": 6002,
      "練": 6003,
      "緻": 6004,
      "縈": 6005,
      "縣": 6006,
      "縮": 6007,
      "縱": 6008,
      "總": 6009,
      "績": 6010,
      "繁": 6011,
      "繇": 6012,
      "繋": 6013,
      "織": 6014,
      "繚": 6015,
      "繞": 6016,
      "繩": 6017,
      "繪": 6018,
      "繫": 6019,
      "繹": 6020,
      "繼": 6021,
      "繽": 6022,
      "纂": 6023,
      "續": 6024,
      "纖": 6025,
      "纟": 6026,
      "纠": 6027,
      "纡": 6028,
      "红": 6029,
      "纣": 6030,
      "纤": 6031,
      "纥": 6032,
      "约": 6033,
      "级": 6034,
      "纨": 6035,
      "纪": 6036,
      "纫": 6037,
      "纬": 6038,
      "纭": 6039,
      "纯": 6040,
      "纰": 6041,
      "纱": 6042,
      "纲": 6043,
      "纳": 6044,
      "纵": 6045,
      "纶": 6046,
      "纷": 6047,
      "纸": 6048,
      "纹": 6049,
      "纺": 6050,
      "纽": 6051,
      "纾": 6052,
      "线": 6053,
      "绀": 6054,
      "练": 6055,
      "组": 6056,
      "绅": 6057,
      "细": 6058,
      "织": 6059,
      "终": 6060,
      "绉": 6061,
      "绊": 6062,
      "绍": 6063,
      "绎": 6064,
      "经": 6065,
      "绑": 6066,
      "绒": 6067,
      "结": 6068,
      "绔": 6069,
      "绕": 6070,
      "绘": 6071,
      "给": 6072,
      "绚": 6073,
      "绛": 6074,
      "络": 6075,
      "绝": 6076,
      "绞": 6077,
      "统": 6078,
      "绡": 6079,
      "绢": 6080,
      "绣": 6081,
      "绥": 6082,
      "绦": 6083,
      "继": 6084,
      "绩": 6085,
      "绪": 6086,
      "绫": 6087,
      "续": 6088,
      "绮": 6089,
      "绯": 6090,
      "绰": 6091,
      "绳": 6092,
      "维": 6093,
      "绵": 6094,
      "绶": 6095,
      "绷": 6096,
      "绸": 6097,
      "绺": 6098,
      "绻": 6099,
      "综": 6100,
      "绽": 6101,
      "绾": 6102,
      "绿": 6103,
      "缀": 6104,
      "缄": 6105,
      "缅": 6106,
      "缆": 6107,
      "缇": 6108,
      "缈": 6109,
      "缉": 6110,
      "缎": 6111,
      "缏": 6112,
      "缓": 6113,
      "缔": 6114,
      "缕": 6115,
      "编": 6116,
      "缘": 6117,
      "缙": 6118,
      "缚": 6119,
      "缛": 6120,
      "缜": 6121,
      "缝": 6122,
      "缠": 6123,
      "缤": 6124,
      "缥": 6125,
      "缨": 6126,
      "缩": 6127,
      "缪": 6128,
      "缫": 6129,
      "缬": 6130,
      "缭": 6131,
      "缮": 6132,
      "缰": 6133,
      "缱": 6134,
      "缴": 6135,
      "缶": 6136,
      "缸": 6137,
      "缺": 6138,
      "缿": 6139,
      "罄": 6140,
      "罅": 6141,
      "罇": 6142,
      "罍": 6143,
      "罐": 6144,
      "网": 6145,
      "罒": 6146,
      "罔": 6147,
      "罕": 6148,
      "罗": 6149,
      "罘": 6150,
      "罚": 6151,
      "罡": 6152,
      "罢": 6153,
      "罥": 6154,
      "罩": 6155,
      "罪": 6156,
      "置": 6157,
      "罰": 6158,
      "署": 6159,
      "罵": 6160,
      "罹": 6161,
      "羁": 6162,
      "羅": 6163,
      "羊": 6164,
      "羌": 6165,
      "美": 6166,
      "羔": 6167,
      "羚": 6168,
      "羞": 6169,
      "羟": 6170,
      "羡": 6171,
      "群": 6172,
      "羧": 6173,
      "義": 6174,
      "羯": 6175,
      "羰": 6176,
      "羲": 6177,
      "羸": 6178,
      "羹": 6179,
      "羽": 6180,
      "羿": 6181,
      "翀": 6182,
      "翁": 6183,
      "翃": 6184,
      "翅": 6185,
      "翊": 6186,
      "翌": 6187,
      "翎": 6188,
      "習": 6189,
      "翔": 6190,
      "翕": 6191,
      "翘": 6192,
      "翟": 6193,
      "翠": 6194,
      "翡": 6195,
      "翦": 6196,
      "翩": 6197,
      "翬": 6198,
      "翮": 6199,
      "翰": 6200,
      "翱": 6201,
      "翳": 6202,
      "翻": 6203,
      "翼": 6204,
      "耀": 6205,
      "老": 6206,
      "考": 6207,
      "耄": 6208,
      "者": 6209,
      "耆": 6210,
      "耋": 6211,
      "而": 6212,
      "耍": 6213,
      "耐": 6214,
      "耒": 6215,
      "耕": 6216,
      "耗": 6217,
      "耘": 6218,
      "耙": 6219,
      "耦": 6220,
      "耳": 6221,
      "耶": 6222,
      "耷": 6223,
      "耸": 6224,
      "耻": 6225,
      "耽": 6226,
      "耿": 6227,
      "聂": 6228,
      "聆": 6229,
      "聊": 6230,
      "聋": 6231,
      "职": 6232,
      "聒": 6233,
      "联": 6234,
      "聖": 6235,
      "聘": 6236,
      "聚": 6237,
      "聞": 6238,
      "聩": 6239,
      "聪": 6240,
      "聯": 6241,
      "聰": 6242,
      "聲": 6243,
      "聴": 6244,
      "職": 6245,
      "聽": 6246,
      "聿": 6247,
      "肃": 6248,
      "肆": 6249,
      "肇": 6250,
      "肉": 6251,
      "肋": 6252,
      "肌": 6253,
      "肓": 6254,
      "肖": 6255,
      "肘": 6256,
      "肚": 6257,
      "肝": 6258,
      "肟": 6259,
      "肠": 6260,
      "股": 6261,
      "肢": 6262,
      "肤": 6263,
      "肥": 6264,
      "肩": 6265,
      "肪": 6266,
      "肫": 6267,
      "肮": 6268,
      "肯": 6269,
      "肱": 6270,
      "育": 6271,
      "肴": 6272,
      "肺": 6273,
      "肼": 6274,
      "肽": 6275,
      "肾": 6276,
      "肿": 6277,
      "胀": 6278,
      "胁": 6279,
      "胃": 6280,
      "胄": 6281,
      "胆": 6282,
      "背": 6283,
      "胍": 6284,
      "胎": 6285,
      "胖": 6286,
      "胗": 6287,
      "胙": 6288,
      "胚": 6289,
      "胛": 6290,
      "胜": 6291,
      "胝": 6292,
      "胞": 6293,
      "胡": 6294,
      "胤": 6295,
      "胥": 6296,
      "胧": 6297,
      "胫": 6298,
      "胭": 6299,
      "胯": 6300,
      "胰": 6301,
      "胱": 6302,
      "胳": 6303,
      "胶": 6304,
      "胸": 6305,
      "胺": 6306,
      "胼": 6307,
      "能": 6308,
      "脂": 6309,
      "脅": 6310,
      "脆": 6311,
      "脈": 6312,
      "脉": 6313,
      "脊": 6314,
      "脍": 6315,
      "脏": 6316,
      "脐": 6317,
      "脑": 6318,
      "脒": 6319,
      "脓": 6320,
      "脖": 6321,
      "脘": 6322,
      "脚": 6323,
      "脩": 6324,
      "脫": 6325,
      "脯": 6326,
      "脱": 6327,
      "脲": 6328,
      "脳": 6329,
      "脷": 6330,
      "脸": 6331,
      "脾": 6332,
      "腆": 6333,
      "腈": 6334,
      "腊": 6335,
      "腋": 6336,
      "腌": 6337,
      "腐": 6338,
      "腑": 6339,
      "腓": 6340,
      "腔": 6341,
      "腕": 6342,
      "腘": 6343,
      "腥": 6344,
      "腦": 6345,
      "腩": 6346,
      "腫": 6347,
      "腭": 6348,
      "腮": 6349,
      "腰": 6350,
      "腱": 6351,
      "腳": 6352,
      "腴": 6353,
      "腸": 6354,
      "腹": 6355,
      "腺": 6356,
      "腻": 6357,
      "腼": 6358,
      "腾": 6359,
      "腿": 6360,
      "膀": 6361,
      "膈": 6362,
      "膊": 6363,
      "膏": 6364,
      "膑": 6365,
      "膘": 6366,
      "膚": 6367,
      "膛": 6368,
      "膜": 6369,
      "膝": 6370,
      "膠": 6371,
      "膦": 6372,
      "膨": 6373,
      "膩": 6374,
      "膳": 6375,
      "膵": 6376,
      "膺": 6377,
      "膻": 6378,
      "臀": 6379,
      "臂": 6380,
      "臃": 6381,
      "臆": 6382,
      "臉": 6383,
      "臊": 6384,
      "臓": 6385,
      "臟": 6386,
      "臣": 6387,
      "臥": 6388,
      "臧": 6389,
      "臨": 6390,
      "自": 6391,
      "臬": 6392,
      "臭": 6393,
      "至": 6394,
      "致": 6395,
      "臺": 6396,
      "臻": 6397,
      "臼": 6398,
      "臾": 6399,
      "舀": 6400,
      "舂": 6401,
      "舄": 6402,
      "舅": 6403,
      "舆": 6404,
      "與": 6405,
      "興": 6406,
      "舉": 6407,
      "舊": 6408,
      "舌": 6409,
      "舍": 6410,
      "舎": 6411,
      "舐": 6412,
      "舒": 6413,
      "舔": 6414,
      "舖": 6415,
      "舗": 6416,
      "舘": 6417,
      "舛": 6418,
      "舜": 6419,
      "舞": 6420,
      "舟": 6421,
      "航": 6422,
      "舫": 6423,
      "般": 6424,
      "舰": 6425,
      "舱": 6426,
      "舵": 6427,
      "舶": 6428,
      "舷": 6429,
      "船": 6430,
      "艇": 6431,
      "艘": 6432,
      "艮": 6433,
      "良": 6434,
      "艰": 6435,
      "艱": 6436,
      "色": 6437,
      "艳": 6438,
      "艷": 6439,
      "艺": 6440,
      "艽": 6441,
      "艾": 6442,
      "艿": 6443,
      "节": 6444,
      "芃": 6445,
      "芈": 6446,
      "芊": 6447,
      "芋": 6448,
      "芍": 6449,
      "芎": 6450,
      "芏": 6451,
      "芒": 6452,
      "芘": 6453,
      "芙": 6454,
      "芜": 6455,
      "芝": 6456,
      "芡": 6457,
      "芤": 6458,
      "芥": 6459,
      "芦": 6460,
      "芩": 6461,
      "芪": 6462,
      "芫": 6463,
      "芬": 6464,
      "芭": 6465,
      "芮": 6466,
      "芯": 6467,
      "花": 6468,
      "芳": 6469,
      "芷": 6470,
      "芸": 6471,
      "芹": 6472,
      "芻": 6473,
      "芽": 6474,
      "芾": 6475,
      "苁": 6476,
      "苄": 6477,
      "苆": 6478,
      "苇": 6479,
      "苋": 6480,
      "苍": 6481,
      "苎": 6482,
      "苏": 6483,
      "苑": 6484,
      "苒": 6485,
      "苓": 6486,
      "苔": 6487,
      "苕": 6488,
      "苗": 6489,
      "苘": 6490,
      "苛": 6491,
      "苜": 6492,
      "苞": 6493,
      "苟": 6494,
      "苡": 6495,
      "苣": 6496,
      "若": 6497,
      "苦": 6498,
      "苫": 6499,
      "苯": 6500,
      "英": 6501,
      "苷": 6502,
      "苹": 6503,
      "茁": 6504,
      "茂": 6505,
      "范": 6506,
      "茄": 6507,
      "茅": 6508,
      "茈": 6509,
      "茉": 6510,
      "茎": 6511,
      "茏": 6512,
      "茗": 6513,
      "茚": 6514,
      "茛": 6515,
      "茜": 6516,
      "茧": 6517,
      "茨": 6518,
      "茫": 6519,
      "茬": 6520,
      "茭": 6521,
      "茯": 6522,
      "茱": 6523,
      "茲": 6524,
      "茳": 6525,
      "茴": 6526,
      "茵": 6527,
      "茶": 6528,
      "茸": 6529,
      "茹": 6530,
      "茼": 6531,
      "荀": 6532,
      "荃": 6533,
      "荆": 6534,
      "荇": 6535,
      "草": 6536,
      "荏": 6537,
      "荐": 6538,
      "荑": 6539,
      "荒": 6540,
      "荔": 6541,
      "荚": 6542,
      "荞": 6543,
      "荟": 6544,
      "荠": 6545,
      "荡": 6546,
      "荣": 6547,
      "荤": 6548,
      "荥": 6549,
      "荦": 6550,
      "荧": 6551,
      "荨": 6552,
      "荪": 6553,
      "荫": 6554,
      "药": 6555,
      "荷": 6556,
      "荸": 6557,
      "荻": 6558,
      "荼": 6559,
      "荽": 6560,
      "莅": 6561,
      "莆": 6562,
      "莉": 6563,
      "莊": 6564,
      "莎": 6565,
      "莒": 6566,
      "莓": 6567,
      "莖": 6568,
      "莘": 6569,
      "莜": 6570,
      "莞": 6571,
      "莠": 6572,
      "莧": 6573,
      "莨": 6574,
      "莪": 6575,
      "莫": 6576,
      "莱": 6577,
      "莲": 6578,
      "莳": 6579,
      "莴": 6580,
      "获": 6581,
      "莹": 6582,
      "莺": 6583,
      "莼": 6584,
      "莽": 6585,
      "菁": 6586,
      "菅": 6587,
      "菇": 6588,
      "菊": 6589,
      "菌": 6590,
      "菏": 6591,
      "菓": 6592,
      "菖": 6593,
      "菜": 6594,
      "菝": 6595,
      "菟": 6596,
      "菠": 6597,
      "菡": 6598,
      "菩": 6599,
      "華": 6600,
      "菱": 6601,
      "菲": 6602,
      "菸": 6603,
      "菹": 6604,
      "菽": 6605,
      "萃": 6606,
      "萄": 6607,
      "萊": 6608,
      "萋": 6609,
      "萌": 6610,
      "萍": 6611,
      "萎": 6612,
      "萏": 6613,
      "萘": 6614,
      "萜": 6615,
      "萝": 6616,
      "萤": 6617,
      "营": 6618,
      "萦": 6619,
      "萧": 6620,
      "萨": 6621,
      "萬": 6622,
      "萱": 6623,
      "萸": 6624,
      "萼": 6625,
      "落": 6626,
      "葆": 6627,
      "葉": 6628,
      "著": 6629,
      "葙": 6630,
      "葚": 6631,
      "葛": 6632,
      "葜": 6633,
      "葡": 6634,
      "董": 6635,
      "葦": 6636,
      "葩": 6637,
      "葫": 6638,
      "葬": 6639,
      "葭": 6640,
      "葱": 6641,
      "葳": 6642,
      "葵": 6643,
      "葶": 6644,
      "葺": 6645,
      "蒂": 6646,
      "蒋": 6647,
      "蒌": 6648,
      "蒐": 6649,
      "蒔": 6650,
      "蒗": 6651,
      "蒙": 6652,
      "蒜": 6653,
      "蒟": 6654,
      "蒡": 6655,
      "蒲": 6656,
      "蒴": 6657,
      "蒸": 6658,
      "蒹": 6659,
      "蒺": 6660,
      "蒻": 6661,
      "蒼": 6662,
      "蒽": 6663,
      "蒿": 6664,
      "蓄": 6665,
      "蓉": 6666,
      "蓊": 6667,
      "蓋": 6668,
      "蓍": 6669,
      "蓐": 6670,
      "蓑": 6671,
      "蓓": 6672,
      "蓖": 6673,
      "蓝": 6674,
      "蓟": 6675,
      "蓣": 6676,
      "蓦": 6677,
      "蓬": 6678,
      "蓮": 6679,
      "蓼": 6680,
      "蓿": 6681,
      "蔍": 6682,
      "蔑": 6683,
      "蔓": 6684,
      "蔗": 6685,
      "蔘": 6686,
      "蔚": 6687,
      "蔡": 6688,
      "蔥": 6689,
      "蔫": 6690,
      "蔬": 6691,
      "蔵": 6692,
      "蔷": 6693,
      "蔺": 6694,
      "蔻": 6695,
      "蔼": 6696,
      "蔽": 6697,
      "蕃": 6698,
      "蕈": 6699,
      "蕉": 6700,
      "蕊": 6701,
      "蕎": 6702,
      "蕙": 6703,
      "蕤": 6704,
      "蕨": 6705,
      "蕩": 6706,
      "蕪": 6707,
      "蕭": 6708,
      "蕴": 6709,
      "蕹": 6710,
      "蕻": 6711,
      "蕾": 6712,
      "薄": 6713,
      "薅": 6714,
      "薇": 6715,
      "薏": 6716,
      "薔": 6717,
      "薙": 6718,
      "薛": 6719,
      "薜": 6720,
      "薦": 6721,
      "薩": 6722,
      "薪": 6723,
      "薫": 6724,
      "薮": 6725,
      "薯": 6726,
      "薰": 6727,
      "薷": 6728,
      "薹": 6729,
      "藉": 6730,
      "藍": 6731,
      "藏": 6732,
      "藐": 6733,
      "藓": 6734,
      "藕": 6735,
      "藜": 6736,
      "藝": 6737,
      "藤": 6738,
      "藥": 6739,
      "藩": 6740,
      "藻": 6741,
      "藿": 6742,
      "蘅": 6743,
      "蘆": 6744,
      "蘇": 6745,
      "蘊": 6746,
      "蘋": 6747,
      "蘑": 6748,
      "蘖": 6749,
      "蘚": 6750,
      "蘧": 6751,
      "蘭": 6752,
      "蘴": 6753,
      "蘸": 6754,
      "虎": 6755,
      "虏": 6756,
      "虐": 6757,
      "虑": 6758,
      "虔": 6759,
      "處": 6760,
      "虚": 6761,
      "虛": 6762,
      "虞": 6763,
      "號": 6764,
      "虢": 6765,
      "虫": 6766,
      "虬": 6767,
      "虱": 6768,
      "虹": 6769,
      "虻": 6770,
      "虽": 6771,
      "虾": 6772,
      "蚀": 6773,
      "蚁": 6774,
      "蚂": 6775,
      "蚊": 6776,
      "蚋": 6777,
      "蚌": 6778,
      "蚍": 6779,
      "蚓": 6780,
      "蚕": 6781,
      "蚜": 6782,
      "蚝": 6783,
      "蚣": 6784,
      "蚤": 6785,
      "蚧": 6786,
      "蚩": 6787,
      "蚪": 6788,
      "蚬": 6789,
      "蚯": 6790,
      "蚱": 6791,
      "蚵": 6792,
      "蚶": 6793,
      "蚺": 6794,
      "蛀": 6795,
      "蛆": 6796,
      "蛇": 6797,
      "蛉": 6798,
      "蛊": 6799,
      "蛋": 6800,
      "蛎": 6801,
      "蛏": 6802,
      "蛐": 6803,
      "蛔": 6804,
      "蛙": 6805,
      "蛛": 6806,
      "蛞": 6807,
      "蛟": 6808,
      "蛤": 6809,
      "蛩": 6810,
      "蛪": 6811,
      "蛭": 6812,
      "蛮": 6813,
      "蛰": 6814,
      "蛱": 6815,
      "蛳": 6816,
      "蛸": 6817,
      "蛹": 6818,
      "蛺": 6819,
      "蛻": 6820,
      "蛾": 6821,
      "蜀": 6822,
      "蜂": 6823,
      "蜃": 6824,
      "蜆": 6825,
      "蜇": 6826,
      "蜈": 6827,
      "蜉": 6828,
      "蜊": 6829,
      "蜍": 6830,
      "蜒": 6831,
      "蜓": 6832,
      "蜕": 6833,
      "蜗": 6834,
      "蜘": 6835,
      "蜚": 6836,
      "蜜": 6837,
      "蜡": 6838,
      "蜢": 6839,
      "蜣": 6840,
      "蜥": 6841,
      "蜱": 6842,
      "蜴": 6843,
      "蜷": 6844,
      "蜻": 6845,
      "蜾": 6846,
      "蜿": 6847,
      "蝇": 6848,
      "蝈": 6849,
      "蝉": 6850,
      "蝌": 6851,
      "蝎": 6852,
      "蝓": 6853,
      "蝕": 6854,
      "蝗": 6855,
      "蝙": 6856,
      "蝠": 6857,
      "蝣": 6858,
      "蝥": 6859,
      "蝦": 6860,
      "蝮": 6861,
      "蝰": 6862,
      "蝴": 6863,
      "蝶": 6864,
      "蝼": 6865,
      "蝾": 6866,
      "螂": 6867,
      "螃": 6868,
      "螅": 6869,
      "螈": 6870,
      "融": 6871,
      "螟": 6872,
      "螢": 6873,
      "螨": 6874,
      "螫": 6875,
      "螯": 6876,
      "螳": 6877,
      "螺": 6878,
      "蟀": 6879,
      "蟆": 6880,
      "蟋": 6881,
      "蟑": 6882,
      "蟒": 6883,
      "蟠": 6884,
      "蟥": 6885,
      "蟲": 6886,
      "蟹": 6887,
      "蟻": 6888,
      "蟾": 6889,
      "蠃": 6890,
      "蠊": 6891,
      "蠓": 6892,
      "蠔": 6893,
      "蠕": 6894,
      "蠖": 6895,
      "蠟": 6896,
      "蠡": 6897,
      "蠢": 6898,
      "蠣": 6899,
      "蠱": 6900,
      "血": 6901,
      "衄": 6902,
      "衅": 6903,
      "衆": 6904,
      "行": 6905,
      "衍": 6906,
      "術": 6907,
      "衔": 6908,
      "街": 6909,
      "衙": 6910,
      "衛": 6911,
      "衝": 6912,
      "衡": 6913,
      "衢": 6914,
      "衣": 6915,
      "补": 6916,
      "表": 6917,
      "衩": 6918,
      "衫": 6919,
      "衬": 6920,
      "衮": 6921,
      "衰": 6922,
      "衷": 6923,
      "衹": 6924,
      "衾": 6925,
      "衿": 6926,
      "袁": 6927,
      "袂": 6928,
      "袄": 6929,
      "袅": 6930,
      "袈": 6931,
      "袋": 6932,
      "袍": 6933,
      "袒": 6934,
      "袖": 6935,
      "袜": 6936,
      "袤": 6937,
      "被": 6938,
      "袭": 6939,
      "袱": 6940,
      "袴": 6941,
      "裁": 6942,
      "裂": 6943,
      "装": 6944,
      "裆": 6945,
      "裏": 6946,
      "裔": 6947,
      "裕": 6948,
      "裘": 6949,
      "裙": 6950,
      "補": 6951,
      "裝": 6952,
      "裟": 6953,
      "裡": 6954,
      "裤": 6955,
      "裥": 6956,
      "裨": 6957,
      "裰": 6958,
      "裱": 6959,
      "裳": 6960,
      "裴": 6961,
      "裸": 6962,
      "裹": 6963,
      "製": 6964,
      "裾": 6965,
      "褂": 6966,
      "複": 6967,
      "褐": 6968,
      "褒": 6969,
      "褓": 6970,
      "褚": 6971,
      "褛": 6972,
      "褥": 6973,
      "褪": 6974,
      "褴": 6975,
      "褶": 6976,
      "襁": 6977,
      "襄": 6978,
      "襟": 6979,
      "襦": 6980,
      "襬": 6981,
      "襯": 6982,
      "襲": 6983,
      "西": 6984,
      "要": 6985,
      "覃": 6986,
      "覆": 6987,
      "見": 6988,
      "規": 6989,
      "視": 6990,
      "覚": 6991,
      "覧": 6992,
      "親": 6993,
      "観": 6994,
      "覺": 6995,
      "覽": 6996,
      "觀": 6997,
      "见": 6998,
      "观": 6999,
      "规": 7000,
      "觅": 7001,
      "视": 7002,
      "览": 7003,
      "觉": 7004,
      "觊": 7005,
      "觎": 7006,
      "觐": 7007,
      "觑": 7008,
      "角": 7009,
      "觚": 7010,
      "觞": 7011,
      "解": 7012,
      "觥": 7013,
      "触": 7014,
      "觸": 7015,
      "言": 7016,
      "訂": 7017,
      "計": 7018,
      "訊": 7019,
      "討": 7020,
      "訓": 7021,
      "記": 7022,
      "訟": 7023,
      "訪": 7024,
      "設": 7025,
      "許": 7026,
      "訳": 7027,
      "訴": 7028,
      "訶": 7029,
      "診": 7030,
      "註": 7031,
      "詈": 7032,
      "詐": 7033,
      "評": 7034,
      "詛": 7035,
      "詞": 7036,
      "詢": 7037,
      "試": 7038,
      "詩": 7039,
      "詰": 7040,
      "話": 7041,
      "該": 7042,
      "詳": 7043,
      "詶": 7044,
      "詹": 7045,
      "誇": 7046,
      "誉": 7047,
      "誌": 7048,
      "認": 7049,
      "誓": 7050,
      "誕": 7051,
      "誘": 7052,
      "語": 7053,
      "誠": 7054,
      "誤": 7055,
      "誦": 7056,
      "說": 7057,
      "説": 7058,
      "読": 7059,
      "誰": 7060,
      "課": 7061,
      "誼": 7062,
      "調": 7063,
      "談": 7064,
      "請": 7065,
      "論": 7066,
      "諦": 7067,
      "諧": 7068,
      "諮": 7069,
      "諾": 7070,
      "謇": 7071,
      "謙": 7072,
      "講": 7073,
      "謝": 7074,
      "謬": 7075,
      "謹": 7076,
      "證": 7077,
      "識": 7078,
      "譜": 7079,
      "警": 7080,
      "譬": 7081,
      "譯": 7082,
      "議": 7083,
      "譲": 7084,
      "譴": 7085,
      "護": 7086,
      "譽": 7087,
      "讀": 7088,
      "讃": 7089,
      "變": 7090,
      "讓": 7091,
      "讚": 7092,
      "计": 7093,
      "订": 7094,
      "认": 7095,
      "讥": 7096,
      "讧": 7097,
      "讨": 7098,
      "让": 7099,
      "讪": 7100,
      "训": 7101,
      "议": 7102,
      "讯": 7103,
      "记": 7104,
      "讲": 7105,
      "讳": 7106,
      "讴": 7107,
      "讵": 7108,
      "讶": 7109,
      "讷": 7110,
      "许": 7111,
      "讹": 7112,
      "论": 7113,
      "讼": 7114,
      "讽": 7115,
      "设": 7116,
      "访": 7117,
      "诀": 7118,
      "证": 7119,
      "诃": 7120,
      "评": 7121,
      "诅": 7122,
      "识": 7123,
      "诈": 7124,
      "诉": 7125,
      "诊": 7126,
      "诋": 7127,
      "词": 7128,
      "诏": 7129,
      "译": 7130,
      "试": 7131,
      "诗": 7132,
      "诘": 7133,
      "诙": 7134,
      "诚": 7135,
      "诛": 7136,
      "诜": 7137,
      "话": 7138,
      "诞": 7139,
      "诟": 7140,
      "诠": 7141,
      "诡": 7142,
      "询": 7143,
      "诣": 7144,
      "诤": 7145,
      "该": 7146,
      "详": 7147,
      "诧": 7148,
      "诨": 7149,
      "诩": 7150,
      "诫": 7151,
      "诬": 7152,
      "语": 7153,
      "误": 7154,
      "诰": 7155,
      "诱": 7156,
      "诲": 7157,
      "说": 7158,
      "诵": 7159,
      "诶": 7160,
      "请": 7161,
      "诸": 7162,
      "诺": 7163,
      "读": 7164,
      "诽": 7165,
      "课": 7166,
      "诿": 7167,
      "谀": 7168,
      "谁": 7169,
      "调": 7170,
      "谄": 7171,
      "谅": 7172,
      "谆": 7173,
      "谈": 7174,
      "谊": 7175,
      "谋": 7176,
      "谍": 7177,
      "谎": 7178,
      "谏": 7179,
      "谐": 7180,
      "谑": 7181,
      "谒": 7182,
      "谓": 7183,
      "谔": 7184,
      "谕": 7185,
      "谗": 7186,
      "谘": 7187,
      "谙": 7188,
      "谚": 7189,
      "谛": 7190,
      "谜": 7191,
      "谟": 7192,
      "谡": 7193,
      "谢": 7194,
      "谣": 7195,
      "谤": 7196,
      "谥": 7197,
      "谦": 7198,
      "谧": 7199,
      "谨": 7200,
      "谩": 7201,
      "谪": 7202,
      "谬": 7203,
      "谭": 7204,
      "谯": 7205,
      "谱": 7206,
      "谲": 7207,
      "谴": 7208,
      "谶": 7209,
      "谷": 7210,
      "谿": 7211,
      "豁": 7212,
      "豆": 7213,
      "豇": 7214,
      "豉": 7215,
      "豊": 7216,
      "豌": 7217,
      "豐": 7218,
      "豔": 7219,
      "豕": 7220,
      "豚": 7221,
      "豜": 7222,
      "象": 7223,
      "豢": 7224,
      "豪": 7225,
      "豫": 7226,
      "豬": 7227,
      "豹": 7228,
      "豺": 7229,
      "貂": 7230,
      "貉": 7231,
      "貊": 7232,
      "貌": 7233,
      "貓": 7234,
      "貘": 7235,
      "貝": 7236,
      "負": 7237,
      "財": 7238,
      "貢": 7239,
      "貧": 7240,
      "貨": 7241,
      "責": 7242,
      "貯": 7243,
      "貴": 7244,
      "貶": 7245,
      "買": 7246,
      "貸": 7247,
      "費": 7248,
      "貼": 7249,
      "貿": 7250,
      "賀": 7251,
      "資": 7252,
      "賈": 7253,
      "賞": 7254,
      "賢": 7255,
      "賣": 7256,
      "質": 7257,
      "賴": 7258,
      "賸": 7259,
      "賺": 7260,
      "購": 7261,
      "賽": 7262,
      "贇": 7263,
      "贏": 7264,
      "贝": 7265,
      "贞": 7266,
      "负": 7267,
      "贡": 7268,
      "财": 7269,
      "责": 7270,
      "贤": 7271,
      "败": 7272,
      "账": 7273,
      "货": 7274,
      "质": 7275,
      "贩": 7276,
      "贪": 7277,
      "贫": 7278,
      "贬": 7279,
      "购": 7280,
      "贮": 7281,
      "贯": 7282,
      "贰": 7283,
      "贱": 7284,
      "贲": 7285,
      "贴": 7286,
      "贵": 7287,
      "贶": 7288,
      "贷": 7289,
      "贸": 7290,
      "费": 7291,
      "贺": 7292,
      "贻": 7293,
      "贼": 7294,
      "贾": 7295,
      "贿": 7296,
      "赁": 7297,
      "赂": 7298,
      "赃": 7299,
      "资": 7300,
      "赅": 7301,
      "赈": 7302,
      "赊": 7303,
      "赋": 7304,
      "赌": 7305,
      "赍": 7306,
      "赎": 7307,
      "赏": 7308,
      "赐": 7309,
      "赔": 7310,
      "赖": 7311,
      "赘": 7312,
      "赚": 7313,
      "赛": 7314,
      "赝": 7315,
      "赞": 7316,
      "赠": 7317,
      "赡": 7318,
      "赢": 7319,
      "赣": 7320,
      "赤": 7321,
      "赦": 7322,
      "赫": 7323,
      "赭": 7324,
      "走": 7325,
      "赳": 7326,
      "赴": 7327,
      "赵": 7328,
      "赶": 7329,
      "起": 7330,
      "趁": 7331,
      "超": 7332,
      "越": 7333,
      "趋": 7334,
      "趑": 7335,
      "趕": 7336,
      "趙": 7337,
      "趟": 7338,
      "趣": 7339,
      "趨": 7340,
      "足": 7341,
      "趴": 7342,
      "趵": 7343,
      "趸": 7344,
      "趺": 7345,
      "趼": 7346,
      "趾": 7347,
      "跃": 7348,
      "跄": 7349,
      "跆": 7350,
      "跋": 7351,
      "跌": 7352,
      "跎": 7353,
      "跏": 7354,
      "跑": 7355,
      "跕": 7356,
      "跖": 7357,
      "跗": 7358,
      "跚": 7359,
      "跛": 7360,
      "距": 7361,
      "跟": 7362,
      "跡": 7363,
      "跤": 7364,
      "跨": 7365,
      "跪": 7366,
      "跬": 7367,
      "路": 7368,
      "跳": 7369,
      "践": 7370,
      "跶": 7371,
      "跷": 7372,
      "跹": 7373,
      "跺": 7374,
      "跻": 7375,
      "踉": 7376,
      "踊": 7377,
      "踌": 7378,
      "踏": 7379,
      "踐": 7380,
      "踝": 7381,
      "踞": 7382,
      "踟": 7383,
      "踢": 7384,
      "踩": 7385,
      "踪": 7386,
      "踮": 7387,
      "踱": 7388,
      "踴": 7389,
      "踵": 7390,
      "踹": 7391,
      "蹁": 7392,
      "蹂": 7393,
      "蹄": 7394,
      "蹇": 7395,
      "蹈": 7396,
      "蹉": 7397,
      "蹊": 7398,
      "蹋": 7399,
      "蹑": 7400,
      "蹒": 7401,
      "蹓": 7402,
      "蹙": 7403,
      "蹟": 7404,
      "蹤": 7405,
      "蹦": 7406,
      "蹩": 7407,
      "蹬": 7408,
      "蹭": 7409,
      "蹲": 7410,
      "蹴": 7411,
      "蹶": 7412,
      "蹼": 7413,
      "蹿": 7414,
      "躁": 7415,
      "躅": 7416,
      "躇": 7417,
      "躍": 7418,
      "躏": 7419,
      "躑": 7420,
      "身": 7421,
      "躬": 7422,
      "躯": 7423,
      "躲": 7424,
      "躺": 7425,
      "車": 7426,
      "軌": 7427,
      "軍": 7428,
      "軟": 7429,
      "転": 7430,
      "軸": 7431,
      "軽": 7432,
      "較": 7433,
      "載": 7434,
      "輒": 7435,
      "輔": 7436,
      "輕": 7437,
      "輛": 7438,
      "輝": 7439,
      "輩": 7440,
      "輪": 7441,
      "輯": 7442,
      "輸": 7443,
      "輻": 7444,
      "轉": 7445,
      "车": 7446,
      "轧": 7447,
      "轨": 7448,
      "轩": 7449,
      "轫": 7450,
      "转": 7451,
      "轭": 7452,
      "轮": 7453,
      "软": 7454,
      "轰": 7455,
      "轲": 7456,
      "轳": 7457,
      "轴": 7458,
      "轶": 7459,
      "轻": 7460,
      "轼": 7461,
      "载": 7462,
      "轿": 7463,
      "较": 7464,
      "辄": 7465,
      "辅": 7466,
      "辆": 7467,
      "辇": 7468,
      "辈": 7469,
      "辉": 7470,
      "辊": 7471,
      "辋": 7472,
      "辍": 7473,
      "辎": 7474,
      "辐": 7475,
      "辑": 7476,
      "输": 7477,
      "辔": 7478,
      "辕": 7479,
      "辖": 7480,
      "辗": 7481,
      "辘": 7482,
      "辙": 7483,
      "辛": 7484,
      "辜": 7485,
      "辞": 7486,
      "辟": 7487,
      "辣": 7488,
      "辦": 7489,
      "辨": 7490,
      "辩": 7491,
      "辫": 7492,
      "辯": 7493,
      "辰": 7494,
      "辱": 7495,
      "農": 7496,
      "辵": 7497,
      "辶": 7498,
      "边": 7499,
      "辺": 7500,
      "辻": 7501,
      "辽": 7502,
      "达": 7503,
      "迁": 7504,
      "迂": 7505,
      "迄": 7506,
      "迅": 7507,
      "过": 7508,
      "迈": 7509,
      "迎": 7510,
      "运": 7511,
      "近": 7512,
      "返": 7513,
      "还": 7514,
      "这": 7515,
      "进": 7516,
      "远": 7517,
      "违": 7518,
      "连": 7519,
      "迟": 7520,
      "迢": 7521,
      "迤": 7522,
      "迥": 7523,
      "迦": 7524,
      "迩": 7525,
      "迪": 7526,
      "迫": 7527,
      "迭": 7528,
      "述": 7529,
      "迴": 7530,
      "迷": 7531,
      "迸": 7532,
      "迹": 7533,
      "迺": 7534,
      "追": 7535,
      "退": 7536,
      "送": 7537,
      "适": 7538,
      "逃": 7539,
      "逅": 7540,
      "逆": 7541,
      "选": 7542,
      "逊": 7543,
      "逍": 7544,
      "透": 7545,
      "逐": 7546,
      "逑": 7547,
      "递": 7548,
      "途": 7549,
      "逗": 7550,
      "這": 7551,
      "通": 7552,
      "逛": 7553,
      "逝": 7554,
      "逞": 7555,
      "速": 7556,
      "造": 7557,
      "逡": 7558,
      "逢": 7559,
      "連": 7560,
      "逮": 7561,
      "週": 7562,
      "進": 7563,
      "逵": 7564,
      "逶": 7565,
      "逸": 7566,
      "逻": 7567,
      "逼": 7568,
      "逾": 7569,
      "遁": 7570,
      "遂": 7571,
      "遅": 7572,
      "遇": 7573,
      "遊": 7574,
      "運": 7575,
      "遍": 7576,
      "過": 7577,
      "遏": 7578,
      "遐": 7579,
      "遑": 7580,
      "遒": 7581,
      "道": 7582,
      "達": 7583,
      "違": 7584,
      "遗": 7585,
      "遛": 7586,
      "遜": 7587,
      "遞": 7588,
      "遠": 7589,
      "遡": 7590,
      "遢": 7591,
      "遣": 7592,
      "遥": 7593,
      "遨": 7594,
      "適": 7595,
      "遭": 7596,
      "遮": 7597,
      "遯": 7598,
      "遲": 7599,
      "遴": 7600,
      "遵": 7601,
      "遷": 7602,
      "選": 7603,
      "遺": 7604,
      "避": 7605,
      "邀": 7606,
      "邁": 7607,
      "邂": 7608,
      "邃": 7609,
      "還": 7610,
      "邈": 7611,
      "邊": 7612,
      "邋": 7613,
      "邏": 7614,
      "邑": 7615,
      "邓": 7616,
      "邕": 7617,
      "邛": 7618,
      "邡": 7619,
      "邢": 7620,
      "那": 7621,
      "邦": 7622,
      "邪": 7623,
      "邮": 7624,
      "邯": 7625,
      "邰": 7626,
      "邱": 7627,
      "邳": 7628,
      "邵": 7629,
      "邶": 7630,
      "邸": 7631,
      "邹": 7632,
      "邺": 7633,
      "邻": 7634,
      "郁": 7635,
      "郅": 7636,
      "郊": 7637,
      "郎": 7638,
      "郏": 7639,
      "郑": 7640,
      "郓": 7641,
      "郜": 7642,
      "郝": 7643,
      "郡": 7644,
      "郢": 7645,
      "部": 7646,
      "郫": 7647,
      "郭": 7648,
      "郯": 7649,
      "郴": 7650,
      "郵": 7651,
      "郷": 7652,
      "郸": 7653,
      "都": 7654,
      "鄂": 7655,
      "鄉": 7656,
      "鄙": 7657,
      "鄞": 7658,
      "鄠": 7659,
      "鄢": 7660,
      "鄭": 7661,
      "鄰": 7662,
      "鄱": 7663,
      "酉": 7664,
      "酊": 7665,
      "酋": 7666,
      "酌": 7667,
      "配": 7668,
      "酐": 7669,
      "酒": 7670,
      "酗": 7671,
      "酚": 7672,
      "酝": 7673,
      "酞": 7674,
      "酢": 7675,
      "酣": 7676,
      "酥": 7677,
      "酩": 7678,
      "酪": 7679,
      "酬": 7680,
      "酮": 7681,
      "酯": 7682,
      "酰": 7683,
      "酱": 7684,
      "酵": 7685,
      "酶": 7686,
      "酷": 7687,
      "酸": 7688,
      "酹": 7689,
      "酿": 7690,
      "醂": 7691,
      "醃": 7692,
      "醅": 7693,
      "醇": 7694,
      "醉": 7695,
      "醋": 7696,
      "醌": 7697,
      "醍": 7698,
      "醐": 7699,
      "醒": 7700,
      "醚": 7701,
      "醛": 7702,
      "醢": 7703,
      "醣": 7704,
      "醪": 7705,
      "醫": 7706,
      "醬": 7707,
      "醮": 7708,
      "醯": 7709,
      "醴": 7710,
      "醸": 7711,
      "醺": 7712,
      "釀": 7713,
      "采": 7714,
      "釈": 7715,
      "釉": 7716,
      "释": 7717,
      "釋": 7718,
      "里": 7719,
      "重": 7720,
      "野": 7721,
      "量": 7722,
      "金": 7723,
      "釜": 7724,
      "針": 7725,
      "釣": 7726,
      "釤": 7727,
      "釵": 7728,
      "鈇": 7729,
      "鈉": 7730,
      "鈍": 7731,
      "鈔": 7732,
      "鈣": 7733,
      "鈮": 7734,
      "鈴": 7735,
      "鈷": 7736,
      "鈹": 7737,
      "鈾": 7738,
      "鉀": 7739,
      "鉄": 7740,
      "鉑": 7741,
      "鉕": 7742,
      "鉛": 7743,
      "鉤": 7744,
      "鉨": 7745,
      "鉬": 7746,
      "鉭": 7747,
      "鉴": 7748,
      "鉻": 7749,
      "鉾": 7750,
      "銀": 7751,
      "銅": 7752,
      "銘": 7753,
      "銥": 7754,
      "銦": 7755,
      "銮": 7756,
      "銳": 7757,
      "銷": 7758,
      "銻": 7759,
      "鋁": 7760,
      "鋇": 7761,
      "鋍": 7762,
      "鋤": 7763,
      "鋥": 7764,
      "鋦": 7765,
      "鋪": 7766,
      "鋰": 7767,
      "鋸": 7768,
      "鋼": 7769,
      "錀": 7770,
      "錄": 7771,
      "錐": 7772,
      "錒": 7773,
      "錢": 7774,
      "錦": 7775,
      "錬": 7776,
      "錯": 7777,
      "錸": 7778,
      "鍀": 7779,
      "鍆": 7780,
      "鍋": 7781,
      "鍍": 7782,
      "鍔": 7783,
      "鍵": 7784,
      "鍶": 7785,
      "鍾": 7786,
      "鎂": 7787,
      "鎌": 7788,
      "鎏": 7789,
      "鎖": 7790,
      "鎝": 7791,
      "鎢": 7792,
      "鎦": 7793,
      "鎮": 7794,
      "鎳": 7795,
      "鎶": 7796,
      "鏈": 7797,
      "鏋": 7798,
      "鏖": 7799,
      "鏟": 7800,
      "鏡": 7801,
      "鏷": 7802,
      "鏽": 7803,
      "鐏": 7804,
      "鐘": 7805,
      "鐠": 7806,
      "鐨": 7807,
      "鐪": 7808,
      "鐵": 7809,
      "鑪": 7810,
      "鑫": 7811,
      "鑼": 7812,
      "鑽": 7813,
      "钅": 7814,
      "钆": 7815,
      "钇": 7816,
      "针": 7817,
      "钉": 7818,
      "钊": 7819,
      "钋": 7820,
      "钌": 7821,
      "钍": 7822,
      "钎": 7823,
      "钏": 7824,
      "钐": 7825,
      "钒": 7826,
      "钓": 7827,
      "钔": 7828,
      "钕": 7829,
      "钖": 7830,
      "钗": 7831,
      "钙": 7832,
      "钚": 7833,
      "钛": 7834,
      "钜": 7835,
      "钝": 7836,
      "钞": 7837,
      "钟": 7838,
      "钠": 7839,
      "钡": 7840,
      "钢": 7841,
      "钣": 7842,
      "钥": 7843,
      "钦": 7844,
      "钧": 7845,
      "钨": 7846,
      "钩": 7847,
      "钪": 7848,
      "钫": 7849,
      "钬": 7850,
      "钮": 7851,
      "钯": 7852,
      "钰": 7853,
      "钱": 7854,
      "钳": 7855,
      "钴": 7856,
      "钵": 7857,
      "钷": 7858,
      "钹": 7859,
      "钺": 7860,
      "钻": 7861,
      "钼": 7862,
      "钽": 7863,
      "钾": 7864,
      "钿": 7865,
      "铀": 7866,
      "铁": 7867,
      "铂": 7868,
      "铃": 7869,
      "铄": 7870,
      "铅": 7871,
      "铆": 7872,
      "铈": 7873,
      "铉": 7874,
      "铊": 7875,
      "铋": 7876,
      "铌": 7877,
      "铍": 7878,
      "铎": 7879,
      "铐": 7880,
      "铑": 7881,
      "铒": 7882,
      "铓": 7883,
      "铕": 7884,
      "铖": 7885,
      "铘": 7886,
      "铙": 7887,
      "铛": 7888,
      "铜": 7889,
      "铝": 7890,
      "铟": 7891,
      "铠": 7892,
      "铡": 7893,
      "铢": 7894,
      "铣": 7895,
      "铤": 7896,
      "铥": 7897,
      "铧": 7898,
      "铩": 7899,
      "铪": 7900,
      "铫": 7901,
      "铬": 7902,
      "铭": 7903,
      "铮": 7904,
      "铯": 7905,
      "铰": 7906,
      "铱": 7907,
      "铲": 7908,
      "铳": 7909,
      "铴": 7910,
      "铵": 7911,
      "银": 7912,
      "铷": 7913,
      "铸": 7914,
      "铹": 7915,
      "铺": 7916,
      "铼": 7917,
      "铽": 7918,
      "链": 7919,
      "铿": 7920,
      "销": 7921,
      "锁": 7922,
      "锂": 7923,
      "锄": 7924,
      "锅": 7925,
      "锆": 7926,
      "锇": 7927,
      "锈": 7928,
      "锉": 7929,
      "锋": 7930,
      "锌": 7931,
      "锎": 7932,
      "锏": 7933,
      "锐": 7934,
      "锑": 7935,
      "锔": 7936,
      "锕": 7937,
      "锗": 7938,
      "锘": 7939,
      "错": 7940,
      "锚": 7941,
      "锝": 7942,
      "锟": 7943,
      "锡": 7944,
      "锢": 7945,
      "锣": 7946,
      "锤": 7947,
      "锥": 7948,
      "锦": 7949,
      "锨": 7950,
      "锫": 7951,
      "锭": 7952,
      "键": 7953,
      "锯": 7954,
      "锰": 7955,
      "锱": 7956,
      "锲": 7957,
      "锵": 7958,
      "锶": 7959,
      "锹": 7960,
      "锺": 7961,
      "锻": 7962,
      "锿": 7963,
      "镀": 7964,
      "镁": 7965,
      "镂": 7966,
      "镄": 7967,
      "镅": 7968,
      "镆": 7969,
      "镇": 7970,
      "镉": 7971,
      "镊": 7972,
      "镌": 7973,
      "镍": 7974,
      "镎": 7975,
      "镏": 7976,
      "镐": 7977,
      "镑": 7978,
      "镒": 7979,
      "镓": 7980,
      "镖": 7981,
      "镗": 7982,
      "镘": 7983,
      "镛": 7984,
      "镜": 7985,
      "镝": 7986,
      "镟": 7987,
      "镣": 7988,
      "镤": 7989,
      "镥": 7990,
      "镦": 7991,
      "镧": 7992,
      "镨": 7993,
      "镫": 7994,
      "镬": 7995,
      "镭": 7996,
      "镯": 7997,
      "镰": 7998,
      "镱": 7999,
      "镲": 8000,
      "镳": 8001,
      "镶": 8002,
      "長": 8003,
      "长": 8004,
      "門": 8005,
      "閃": 8006,
      "閉": 8007,
      "開": 8008,
      "間": 8009,
      "関": 8010,
      "閥": 8011,
      "閱": 8012,
      "闇": 8013,
      "闊": 8014,
      "闘": 8015,
      "關": 8016,
      "闡": 8017,
      "门": 8018,
      "闩": 8019,
      "闪": 8020,
      "闫": 8021,
      "闭": 8022,
      "问": 8023,
      "闯": 8024,
      "闰": 8025,
      "闱": 8026,
      "闲": 8027,
      "间": 8028,
      "闵": 8029,
      "闷": 8030,
      "闸": 8031,
      "闹": 8032,
      "闺": 8033,
      "闻": 8034,
      "闽": 8035,
      "闾": 8036,
      "闿": 8037,
      "阀": 8038,
      "阁": 8039,
      "阂": 8040,
      "阅": 8041,
      "阆": 8042,
      "阇": 8043,
      "阈": 8044,
      "阋": 8045,
      "阎": 8046,
      "阐": 8047,
      "阑": 8048,
      "阔": 8049,
      "阖": 8050,
      "阗": 8051,
      "阙": 8052,
      "阚": 8053,
      "阜": 8054,
      "阝": 8055,
      "队": 8056,
      "阡": 8057,
      "阪": 8058,
      "阮": 8059,
      "阱": 8060,
      "防": 8061,
      "阳": 8062,
      "阴": 8063,
      "阵": 8064,
      "阶": 8065,
      "阻": 8066,
      "阿": 8067,
      "陀": 8068,
      "陂": 8069,
      "附": 8070,
      "际": 8071,
      "陆": 8072,
      "陇": 8073,
      "陈": 8074,
      "陉": 8075,
      "陋": 8076,
      "陌": 8077,
      "降": 8078,
      "限": 8079,
      "陔": 8080,
      "陕": 8081,
      "陛": 8082,
      "陡": 8083,
      "院": 8084,
      "陣": 8085,
      "除": 8086,
      "陨": 8087,
      "险": 8088,
      "陪": 8089,
      "陰": 8090,
      "陲": 8091,
      "陳": 8092,
      "陵": 8093,
      "陶": 8094,
      "陷": 8095,
      "陸": 8096,
      "険": 8097,
      "陽": 8098,
      "隅": 8099,
      "隆": 8100,
      "隈": 8101,
      "隊": 8102,
      "隋": 8103,
      "隍": 8104,
      "階": 8105,
      "随": 8106,
      "隐": 8107,
      "隔": 8108,
      "隕": 8109,
      "隘": 8110,
      "隙": 8111,
      "際": 8112,
      "障": 8113,
      "隠": 8114,
      "隧": 8115,
      "隨": 8116,
      "險": 8117,
      "隱": 8118,
      "隶": 8119,
      "隻": 8120,
      "隼": 8121,
      "隽": 8122,
      "难": 8123,
      "雀": 8124,
      "雁": 8125,
      "雄": 8126,
      "雅": 8127,
      "集": 8128,
      "雇": 8129,
      "雉": 8130,
      "雋": 8131,
      "雌": 8132,
      "雍": 8133,
      "雎": 8134,
      "雏": 8135,
      "雕": 8136,
      "雖": 8137,
      "雙": 8138,
      "雛": 8139,
      "雜": 8140,
      "雞": 8141,
      "離": 8142,
      "難": 8143,
      "雨": 8144,
      "雪": 8145,
      "雯": 8146,
      "雰": 8147,
      "雲": 8148,
      "雳": 8149,
      "零": 8150,
      "雷": 8151,
      "雹": 8152,
      "電": 8153,
      "雾": 8154,
      "需": 8155,
      "霁": 8156,
      "霄": 8157,
      "霅": 8158,
      "霆": 8159,
      "震": 8160,
      "霈": 8161,
      "霉": 8162,
      "霍": 8163,
      "霎": 8164,
      "霏": 8165,
      "霓": 8166,
      "霖": 8167,
      "霜": 8168,
      "霞": 8169,
      "霧": 8170,
      "霭": 8171,
      "霰": 8172,
      "露": 8173,
      "霸": 8174,
      "霹": 8175,
      "霾": 8176,
      "靈": 8177,
      "青": 8178,
      "靓": 8179,
      "靖": 8180,
      "静": 8181,
      "靛": 8182,
      "靜": 8183,
      "非": 8184,
      "靠": 8185,
      "靡": 8186,
      "面": 8187,
      "靥": 8188,
      "革": 8189,
      "靭": 8190,
      "靳": 8191,
      "靴": 8192,
      "靶": 8193,
      "靼": 8194,
      "鞅": 8195,
      "鞋": 8196,
      "鞍": 8197,
      "鞑": 8198,
      "鞘": 8199,
      "鞠": 8200,
      "鞣": 8201,
      "鞭": 8202,
      "韌": 8203,
      "韦": 8204,
      "韧": 8205,
      "韩": 8206,
      "韪": 8207,
      "韬": 8208,
      "韭": 8209,
      "韲": 8210,
      "音": 8211,
      "韵": 8212,
      "韶": 8213,
      "韻": 8214,
      "響": 8215,
      "頁": 8216,
      "頂": 8217,
      "頃": 8218,
      "項": 8219,
      "順": 8220,
      "須": 8221,
      "頌": 8222,
      "預": 8223,
      "頑": 8224,
      "頓": 8225,
      "頔": 8226,
      "頗": 8227,
      "領": 8228,
      "頫": 8229,
      "頭": 8230,
      "頸": 8231,
      "頻": 8232,
      "題": 8233,
      "額": 8234,
      "顏": 8235,
      "顔": 8236,
      "顗": 8237,
      "願": 8238,
      "類": 8239,
      "顧": 8240,
      "顫": 8241,
      "顯": 8242,
      "页": 8243,
      "顶": 8244,
      "顷": 8245,
      "项": 8246,
      "顺": 8247,
      "须": 8248,
      "顼": 8249,
      "顽": 8250,
      "顾": 8251,
      "顿": 8252,
      "颀": 8253,
      "颁": 8254,
      "颂": 8255,
      "预": 8256,
      "颅": 8257,
      "领": 8258,
      "颇": 8259,
      "颈": 8260,
      "颉": 8261,
      "颊": 8262,
      "颌": 8263,
      "颍": 8264,
      "颏": 8265,
      "颐": 8266,
      "频": 8267,
      "颓": 8268,
      "颔": 8269,
      "颖": 8270,
      "颗": 8271,
      "题": 8272,
      "颚": 8273,
      "颛": 8274,
      "颜": 8275,
      "额": 8276,
      "颞": 8277,
      "颠": 8278,
      "颢": 8279,
      "颤": 8280,
      "颦": 8281,
      "颧": 8282,
      "風": 8283,
      "颱": 8284,
      "颻": 8285,
      "飄": 8286,
      "飆": 8287,
      "风": 8288,
      "飒": 8289,
      "飓": 8290,
      "飕": 8291,
      "飘": 8292,
      "飙": 8293,
      "飚": 8294,
      "飛": 8295,
      "飞": 8296,
      "食": 8297,
      "飢": 8298,
      "飨": 8299,
      "飪": 8300,
      "飯": 8301,
      "飲": 8302,
      "飼": 8303,
      "飾": 8304,
      "餃": 8305,
      "餅": 8306,
      "養": 8307,
      "餐": 8308,
      "餓": 8309,
      "餘": 8310,
      "餚": 8311,
      "餡": 8312,
      "館": 8313,
      "餮": 8314,
      "餵": 8315,
      "饃": 8316,
      "饈": 8317,
      "饋": 8318,
      "饕": 8319,
      "饥": 8320,
      "饧": 8321,
      "饨": 8322,
      "饪": 8323,
      "饭": 8324,
      "饮": 8325,
      "饯": 8326,
      "饰": 8327,
      "饱": 8328,
      "饲": 8329,
      "饴": 8330,
      "饵": 8331,
      "饶": 8332,
      "饺": 8333,
      "饼": 8334,
      "饽": 8335,
      "饿": 8336,
      "馀": 8337,
      "馁": 8338,
      "馄": 8339,
      "馅": 8340,
      "馆": 8341,
      "馈": 8342,
      "馊": 8343,
      "馋": 8344,
      "馍": 8345,
      "馏": 8346,
      "馐": 8347,
      "馑": 8348,
      "馒": 8349,
      "馔": 8350,
      "馕": 8351,
      "首": 8352,
      "馗": 8353,
      "馘": 8354,
      "香": 8355,
      "馥": 8356,
      "馨": 8357,
      "馬": 8358,
      "馳": 8359,
      "馴": 8360,
      "駅": 8361,
      "駆": 8362,
      "駕": 8363,
      "駛": 8364,
      "騒": 8365,
      "験": 8366,
      "騙": 8367,
      "騰": 8368,
      "騷": 8369,
      "驗": 8370,
      "驚": 8371,
      "驟": 8372,
      "马": 8373,
      "驭": 8374,
      "驮": 8375,
      "驯": 8376,
      "驰": 8377,
      "驱": 8378,
      "驳": 8379,
      "驴": 8380,
      "驶": 8381,
      "驹": 8382,
      "驻": 8383,
      "驼": 8384,
      "驽": 8385,
      "驾": 8386,
      "驿": 8387,
      "骁": 8388,
      "骂": 8389,
      "骄": 8390,
      "骅": 8391,
      "骆": 8392,
      "骇": 8393,
      "骈": 8394,
      "骊": 8395,
      "骋": 8396,
      "验": 8397,
      "骏": 8398,
      "骐": 8399,
      "骑": 8400,
      "骗": 8401,
      "骚": 8402,
      "骛": 8403,
      "骜": 8404,
      "骞": 8405,
      "骡": 8406,
      "骢": 8407,
      "骤": 8408,
      "骥": 8409,
      "骨": 8410,
      "骰": 8411,
      "骶": 8412,
      "骷": 8413,
      "骸": 8414,
      "骺": 8415,
      "骼": 8416,
      "髀": 8417,
      "髁": 8418,
      "髂": 8419,
      "髅": 8420,
      "髈": 8421,
      "髋": 8422,
      "髌": 8423,
      "髒": 8424,
      "髓": 8425,
      "體": 8426,
      "高": 8427,
      "髙": 8428,
      "髦": 8429,
      "髮": 8430,
      "髯": 8431,
      "髻": 8432,
      "鬃": 8433,
      "鬆": 8434,
      "鬈": 8435,
      "鬓": 8436,
      "鬘": 8437,
      "鬚": 8438,
      "鬟": 8439,
      "鬣": 8440,
      "鬥": 8441,
      "鬱": 8442,
      "鬼": 8443,
      "魁": 8444,
      "魂": 8445,
      "魄": 8446,
      "魅": 8447,
      "魇": 8448,
      "魈": 8449,
      "魏": 8450,
      "魔": 8451,
      "魚": 8452,
      "魟": 8453,
      "魯": 8454,
      "鮃": 8455,
      "鮑": 8456,
      "鮭": 8457,
      "鮮": 8458,
      "鮰": 8459,
      "鯈": 8460,
      "鯊": 8461,
      "鯨": 8462,
      "鰤": 8463,
      "鱈": 8464,
      "鱚": 8465,
      "鱵": 8466,
      "鱷": 8467,
      "鱼": 8468,
      "鱿": 8469,
      "鲀": 8470,
      "鲁": 8471,
      "鲂": 8472,
      "鲅": 8473,
      "鲇": 8474,
      "鲈": 8475,
      "鲋": 8476,
      "鲍": 8477,
      "鲎": 8478,
      "鲑": 8479,
      "鲔": 8480,
      "鲙": 8481,
      "鲛": 8482,
      "鲜": 8483,
      "鲞": 8484,
      "鲟": 8485,
      "鲠": 8486,
      "鲡": 8487,
      "鲢": 8488,
      "鲣": 8489,
      "鲤": 8490,
      "鲥": 8491,
      "鲧": 8492,
      "鲨": 8493,
      "鲫": 8494,
      "鲭": 8495,
      "鲮": 8496,
      "鲱": 8497,
      "鲲": 8498,
      "鲳": 8499,
      "鲵": 8500,
      "鲶": 8501,
      "鲷": 8502,
      "鲸": 8503,
      "鲻": 8504,
      "鲼": 8505,
      "鲽": 8506,
      "鳀": 8507,
      "鳃": 8508,
      "鳄": 8509,
      "鳅": 8510,
      "鳇": 8511,
      "鳈": 8512,
      "鳊": 8513,
      "鳋": 8514,
      "鳌": 8515,
      "鳍": 8516,
      "鳐": 8517,
      "鳔": 8518,
      "鳕": 8519,
      "鳖": 8520,
      "鳗": 8521,
      "鳙": 8522,
      "鳜": 8523,
      "鳝": 8524,
      "鳞": 8525,
      "鳟": 8526,
      "鳢": 8527,
      "鳥": 8528,
      "鳩": 8529,
      "鳮": 8530,
      "鳯": 8531,
      "鳳": 8532,
      "鳴": 8533,
      "鴈": 8534,
      "鴨": 8535,
      "鴻": 8536,
      "鵝": 8537,
      "鵡": 8538,
      "鵰": 8539,
      "鵲": 8540,
      "鶩": 8541,
      "鷉": 8542,
      "鷗": 8543,
      "鷲": 8544,
      "鷹": 8545,
      "鸊": 8546,
      "鸚": 8547,
      "鸟": 8548,
      "鸠": 8549,
      "鸡": 8550,
      "鸢": 8551,
      "鸣": 8552,
      "鸥": 8553,
      "鸦": 8554,
      "鸨": 8555,
      "鸩": 8556,
      "鸪": 8557,
      "鸫": 8558,
      "鸬": 8559,
      "鸭": 8560,
      "鸮": 8561,
      "鸯": 8562,
      "鸲": 8563,
      "鸳": 8564,
      "鸵": 8565,
      "鸷": 8566,
      "鸸": 8567,
      "鸺": 8568,
      "鸻": 8569,
      "鸽": 8570,
      "鸾": 8571,
      "鸿": 8572,
      "鹀": 8573,
      "鹂": 8574,
      "鹃": 8575,
      "鹄": 8576,
      "鹅": 8577,
      "鹇": 8578,
      "鹈": 8579,
      "鹉": 8580,
      "鹊": 8581,
      "鹋": 8582,
      "鹌": 8583,
      "鹎": 8584,
      "鹏": 8585,
      "鹑": 8586,
      "鹕": 8587,
      "鹗": 8588,
      "鹚": 8589,
      "鹜": 8590,
      "鹞": 8591,
      "鹟": 8592,
      "鹠": 8593,
      "鹣": 8594,
      "鹤": 8595,
      "鹦": 8596,
      "鹧": 8597,
      "鹩": 8598,
      "鹫": 8599,
      "鹭": 8600,
      "鹮": 8601,
      "鹰": 8602,
      "鹱": 8603,
      "鹳": 8604,
      "鹹": 8605,
      "鹼": 8606,
      "鹽": 8607,
      "鹾": 8608,
      "鹿": 8609,
      "麂": 8610,
      "麇": 8611,
      "麋": 8612,
      "麒": 8613,
      "麓": 8614,
      "麗": 8615,
      "麝": 8616,
      "麟": 8617,
      "麥": 8618,
      "麦": 8619,
      "麵": 8620,
      "麸": 8621,
      "麹": 8622,
      "麺": 8623,
      "麻": 8624,
      "麼": 8625,
      "麽": 8626,
      "麾": 8627,
      "黃": 8628,
      "黄": 8629,
      "黍": 8630,
      "黎": 8631,
      "黏": 8632,
      "黑": 8633,
      "黒": 8634,
      "黔": 8635,
      "默": 8636,
      "黛": 8637,
      "黜": 8638,
      "黝": 8639,
      "點": 8640,
      "黟": 8641,
      "黠": 8642,
      "黥": 8643,
      "黧": 8644,
      "黯": 8645,
      "黾": 8646,
      "鼋": 8647,
      "鼎": 8648,
      "鼐": 8649,
      "鼓": 8650,
      "鼙": 8651,
      "鼠": 8652,
      "鼩": 8653,
      "鼬": 8654,
      "鼯": 8655,
      "鼱": 8656,
      "鼹": 8657,
      "鼻": 8658,
      "鼾": 8659,
      "齁": 8660,
      "齉": 8661,
      "齊": 8662,
      "齐": 8663,
      "齒": 8664,
      "齘": 8665,
      "齡": 8666,
      "齢": 8667,
      "齦": 8668,
      "齿": 8669,
      "龄": 8670,
      "龈": 8671,
      "龊": 8672,
      "龋": 8673,
      "龌": 8674,
      "龍": 8675,
      "龐": 8676,
      "龘": 8677,
      "龙": 8678,
      "龚": 8679,
      "龛": 8680,
      "龟": 8681,
      "龢": 8682,
      "鿏": 8683,
      "鿬": 8684,
      "가": 8685,
      "각": 8686,
      "간": 8687,
      "갈": 8688,
      "감": 8689,
      "갑": 8690,
      "값": 8691,
      "갓": 8692,
      "갔": 8693,
      "강": 8694,
      "갖": 8695,
      "같": 8696,
      "개": 8697,
      "객": 8698,
      "갤": 8699,
      "갱": 8700,
      "거": 8701,
      "걱": 8702,
      "건": 8703,
      "걷": 8704,
      "걸": 8705,
      "검": 8706,
      "겁": 8707,
      "것": 8708,
      "겉": 8709,
      "게": 8710,
      "겔": 8711,
      "겟": 8712,
      "겠": 8713,
      "겨": 8714,
      "격": 8715,
      "겪": 8716,
      "견": 8717,
      "결": 8718,
      "겼": 8719,
      "경": 8720,
      "곁": 8721,
      "계": 8722,
      "고": 8723,
      "곡": 8724,
      "곤": 8725,
      "곧": 8726,
      "골": 8727,
      "곱": 8728,
      "곳": 8729,
      "공": 8730,
      "과": 8731,
      "관": 8732,
      "괄": 8733,
      "광": 8734,
      "괜": 8735,
      "괴": 8736,
      "굉": 8737,
      "교": 8738,
      "구": 8739,
      "국": 8740,
      "군": 8741,
      "굴": 8742,
      "굵": 8743,
      "궁": 8744,
      "권": 8745,
      "귀": 8746,
      "규": 8747,
      "균": 8748,
      "그": 8749,
      "극": 8750,
      "근": 8751,
      "글": 8752,
      "금": 8753,
      "급": 8754,
      "긋": 8755,
      "긍": 8756,
      "긔": 8757,
      "기": 8758,
      "긴": 8759,
      "길": 8760,
      "김": 8761,
      "깃": 8762,
      "깊": 8763,
      "까": 8764,
      "깐": 8765,
      "깔": 8766,
      "깝": 8767,
      "깨": 8768,
      "꺼": 8769,
      "께": 8770,
      "껴": 8771,
      "꼈": 8772,
      "꼭": 8773,
      "꼼": 8774,
      "꽃": 8775,
      "꾸": 8776,
      "꿀": 8777,
      "꿈": 8778,
      "꿉": 8779,
      "꿔": 8780,
      "뀌": 8781,
      "끄": 8782,
      "끌": 8783,
      "끔": 8784,
      "끗": 8785,
      "끝": 8786,
      "끼": 8787,
      "낀": 8788,
      "낄": 8789,
      "낌": 8790,
      "나": 8791,
      "낙": 8792,
      "난": 8793,
      "날": 8794,
      "남": 8795,
      "납": 8796,
      "낫": 8797,
      "났": 8798,
      "낭": 8799,
      "낮": 8800,
      "내": 8801,
      "낵": 8802,
      "낸": 8803,
      "낼": 8804,
      "냄": 8805,
      "냅": 8806,
      "냈": 8807,
      "냐": 8808,
      "너": 8809,
      "넌": 8810,
      "널": 8811,
      "넘": 8812,
      "넣": 8813,
      "네": 8814,
      "넨": 8815,
      "넷": 8816,
      "녀": 8817,
      "녁": 8818,
      "년": 8819,
      "념": 8820,
      "녕": 8821,
      "노": 8822,
      "녹": 8823,
      "논": 8824,
      "놀": 8825,
      "농": 8826,
      "높": 8827,
      "놓": 8828,
      "뇌": 8829,
      "뇽": 8830,
      "누": 8831,
      "눅": 8832,
      "눈": 8833,
      "눴": 8834,
      "뉩": 8835,
      "뉴": 8836,
      "느": 8837,
      "늑": 8838,
      "는": 8839,
      "늘": 8840,
      "능": 8841,
      "늬": 8842,
      "니": 8843,
      "닉": 8844,
      "닌": 8845,
      "닐": 8846,
      "님": 8847,
      "닙": 8848,
      "닝": 8849,
      "다": 8850,
      "닦": 8851,
      "단": 8852,
      "닫": 8853,
      "달": 8854,
      "닭": 8855,
      "담": 8856,
      "답": 8857,
      "닷": 8858,
      "당": 8859,
      "닿": 8860,
      "대": 8861,
      "댓": 8862,
      "더": 8863,
      "덕": 8864,
      "던": 8865,
      "덜": 8866,
      "덤": 8867,
      "데": 8868,
      "덴": 8869,
      "델": 8870,
      "도": 8871,
      "독": 8872,
      "돈": 8873,
      "돌": 8874,
      "돕": 8875,
      "동": 8876,
      "돼": 8877,
      "됐": 8878,
      "되": 8879,
      "된": 8880,
      "될": 8881,
      "됨": 8882,
      "됩": 8883,
      "두": 8884,
      "둔": 8885,
      "둘": 8886,
      "둡": 8887,
      "뒤": 8888,
      "뒷": 8889,
      "드": 8890,
      "득": 8891,
      "든": 8892,
      "듣": 8893,
      "들": 8894,
      "듬": 8895,
      "듭": 8896,
      "듯": 8897,
      "등": 8898,
      "디": 8899,
      "딥": 8900,
      "딧": 8901,
      "딩": 8902,
      "따": 8903,
      "땅": 8904,
      "때": 8905,
      "땠": 8906,
      "떠": 8907,
      "떡": 8908,
      "떤": 8909,
      "떨": 8910,
      "떻": 8911,
      "떼": 8912,
      "또": 8913,
      "똑": 8914,
      "뚝": 8915,
      "뛰": 8916,
      "뜨": 8917,
      "뜻": 8918,
      "띄": 8919,
      "라": 8920,
      "락": 8921,
      "란": 8922,
      "람": 8923,
      "랍": 8924,
      "랐": 8925,
      "랑": 8926,
      "래": 8927,
      "랙": 8928,
      "랜": 8929,
      "램": 8930,
      "랩": 8931,
      "랫": 8932,
      "략": 8933,
      "량": 8934,
      "러": 8935,
      "럭": 8936,
      "런": 8937,
      "럴": 8938,
      "럼": 8939,
      "럽": 8940,
      "렇": 8941,
      "레": 8942,
      "렉": 8943,
      "렌": 8944,
      "려": 8945,
      "력": 8946,
      "련": 8947,
      "렬": 8948,
      "렴": 8949,
      "렵": 8950,
      "렸": 8951,
      "령": 8952,
      "례": 8953,
      "로": 8954,
      "록": 8955,
      "론": 8956,
      "롤": 8957,
      "롬": 8958,
      "롭": 8959,
      "롯": 8960,
      "뢰": 8961,
      "료": 8962,
      "루": 8963,
      "룩": 8964,
      "룬": 8965,
      "룰": 8966,
      "룹": 8967,
      "뤄": 8968,
      "뤼": 8969,
      "류": 8970,
      "륜": 8971,
      "률": 8972,
      "륨": 8973,
      "르": 8974,
      "른": 8975,
      "를": 8976,
      "름": 8977,
      "릅": 8978,
      "리": 8979,
      "릭": 8980,
      "린": 8981,
      "릴": 8982,
      "림": 8983,
      "립": 8984,
      "릿": 8985,
      "링": 8986,
      "마": 8987,
      "막": 8988,
      "만": 8989,
      "많": 8990,
      "말": 8991,
      "맘": 8992,
      "맙": 8993,
      "맛": 8994,
      "망": 8995,
      "맞": 8996,
      "맡": 8997,
      "맣": 8998,
      "매": 8999,
      "맥": 9000,
      "맨": 9001,
      "맵": 9002,
      "맷": 9003,
      "맹": 9004,
      "머": 9005,
      "먹": 9006,
      "먼": 9007,
      "멀": 9008,
      "멈": 9009,
      "멋": 9010,
      "메": 9011,
      "멘": 9012,
      "며": 9013,
      "면": 9014,
      "멸": 9015,
      "명": 9016,
      "몇": 9017,
      "모": 9018,
      "목": 9019,
      "몰": 9020,
      "몸": 9021,
      "못": 9022,
      "묘": 9023,
      "무": 9024,
      "묵": 9025,
      "묶": 9026,
      "문": 9027,
      "물": 9028,
      "뭇": 9029,
      "뭉": 9030,
      "뭐": 9031,
      "뭔": 9032,
      "뭘": 9033,
      "뮤": 9034,
      "뮬": 9035,
      "므": 9036,
      "믈": 9037,
      "미": 9038,
      "믹": 9039,
      "민": 9040,
      "믿": 9041,
      "밀": 9042,
      "밌": 9043,
      "밍": 9044,
      "및": 9045,
      "바": 9046,
      "박": 9047,
      "밖": 9048,
      "반": 9049,
      "받": 9050,
      "발": 9051,
      "밝": 9052,
      "밤": 9053,
      "밥": 9054,
      "방": 9055,
      "배": 9056,
      "백": 9057,
      "밴": 9058,
      "밸": 9059,
      "뱅": 9060,
      "버": 9061,
      "번": 9062,
      "벌": 9063,
      "범": 9064,
      "법": 9065,
      "벗": 9066,
      "벚": 9067,
      "베": 9068,
      "벤": 9069,
      "벨": 9070,
      "벼": 9071,
      "벽": 9072,
      "변": 9073,
      "별": 9074,
      "병": 9075,
      "보": 9076,
      "복": 9077,
      "볶": 9078,
      "본": 9079,
      "볼": 9080,
      "봄": 9081,
      "봅": 9082,
      "봇": 9083,
      "봉": 9084,
      "봐": 9085,
      "봤": 9086,
      "뵈": 9087,
      "뵐": 9088,
      "뵙": 9089,
      "부": 9090,
      "북": 9091,
      "분": 9092,
      "불": 9093,
      "붕": 9094,
      "뷰": 9095,
      "브": 9096,
      "블": 9097,
      "비": 9098,
      "빅": 9099,
      "빈": 9100,
      "빌": 9101,
      "빔": 9102,
      "빕": 9103,
      "빙": 9104,
      "빛": 9105,
      "빠": 9106,
      "빨": 9107,
      "빵": 9108,
      "빼": 9109,
      "뻤": 9110,
      "뼈": 9111,
      "뽑": 9112,
      "뿌": 9113,
      "뿐": 9114,
      "쁘": 9115,
      "쁜": 9116,
      "쁨": 9117,
      "쁩": 9118,
      "사": 9119,
      "삭": 9120,
      "산": 9121,
      "살": 9122,
      "삶": 9123,
      "삼": 9124,
      "삽": 9125,
      "상": 9126,
      "새": 9127,
      "색": 9128,
      "샌": 9129,
      "샘": 9130,
      "생": 9131,
      "샤": 9132,
      "샵": 9133,
      "샷": 9134,
      "서": 9135,
      "석": 9136,
      "선": 9137,
      "설": 9138,
      "섬": 9139,
      "섭": 9140,
      "성": 9141,
      "세": 9142,
      "섹": 9143,
      "센": 9144,
      "셀": 9145,
      "셈": 9146,
      "셉": 9147,
      "셋": 9148,
      "셔": 9149,
      "션": 9150,
      "셜": 9151,
      "셨": 9152,
      "소": 9153,
      "속": 9154,
      "손": 9155,
      "솔": 9156,
      "송": 9157,
      "쇄": 9158,
      "쇼": 9159,
      "수": 9160,
      "숙": 9161,
      "순": 9162,
      "술": 9163,
      "숨": 9164,
      "숫": 9165,
      "숲": 9166,
      "쉬": 9167,
      "쉽": 9168,
      "슈": 9169,
      "스": 9170,
      "슨": 9171,
      "슬": 9172,
      "습": 9173,
      "슷": 9174,
      "승": 9175,
      "시": 9176,
      "식": 9177,
      "신": 9178,
      "실": 9179,
      "심": 9180,
      "십": 9181,
      "싱": 9182,
      "싶": 9183,
      "싸": 9184,
      "쌍": 9185,
      "쌓": 9186,
      "써": 9187,
      "썬": 9188,
      "쏟": 9189,
      "쓰": 9190,
      "쓴": 9191,
      "쓸": 9192,
      "씀": 9193,
      "씨": 9194,
      "씩": 9195,
      "씬": 9196,
      "아": 9197,
      "악": 9198,
      "안": 9199,
      "앉": 9200,
      "않": 9201,
      "알": 9202,
      "암": 9203,
      "압": 9204,
      "앗": 9205,
      "았": 9206,
      "앙": 9207,
      "앞": 9208,
      "애": 9209,
      "액": 9210,
      "앨": 9211,
      "앱": 9212,
      "앳": 9213,
      "야": 9214,
      "약": 9215,
      "얀": 9216,
      "양": 9217,
      "얘": 9218,
      "어": 9219,
      "억": 9220,
      "언": 9221,
      "얹": 9222,
      "얻": 9223,
      "얼": 9224,
      "얽": 9225,
      "엄": 9226,
      "업": 9227,
      "없": 9228,
      "엇": 9229,
      "었": 9230,
      "에": 9231,
      "엔": 9232,
      "엘": 9233,
      "여": 9234,
      "역": 9235,
      "연": 9236,
      "열": 9237,
      "염": 9238,
      "엽": 9239,
      "였": 9240,
      "영": 9241,
      "예": 9242,
      "오": 9243,
      "옥": 9244,
      "온": 9245,
      "올": 9246,
      "옮": 9247,
      "옳": 9248,
      "옵": 9249,
      "옷": 9250,
      "옹": 9251,
      "와": 9252,
      "완": 9253,
      "왔": 9254,
      "왕": 9255,
      "왜": 9256,
      "외": 9257,
      "요": 9258,
      "욕": 9259,
      "용": 9260,
      "우": 9261,
      "욱": 9262,
      "운": 9263,
      "울": 9264,
      "움": 9265,
      "웁": 9266,
      "웃": 9267,
      "워": 9268,
      "원": 9269,
      "월": 9270,
      "웠": 9271,
      "웨": 9272,
      "웰": 9273,
      "웹": 9274,
      "위": 9275,
      "윈": 9276,
      "윗": 9277,
      "유": 9278,
      "육": 9279,
      "윤": 9280,
      "율": 9281,
      "융": 9282,
      "으": 9283,
      "은": 9284,
      "을": 9285,
      "음": 9286,
      "응": 9287,
      "의": 9288,
      "이": 9289,
      "익": 9290,
      "인": 9291,
      "일": 9292,
      "읽": 9293,
      "잃": 9294,
      "임": 9295,
      "입": 9296,
      "있": 9297,
      "잉": 9298,
      "잊": 9299,
      "자": 9300,
      "작": 9301,
      "잔": 9302,
      "잖": 9303,
      "잘": 9304,
      "잠": 9305,
      "잡": 9306,
      "장": 9307,
      "재": 9308,
      "잼": 9309,
      "쟁": 9310,
      "저": 9311,
      "적": 9312,
      "전": 9313,
      "절": 9314,
      "젊": 9315,
      "점": 9316,
      "접": 9317,
      "정": 9318,
      "젖": 9319,
      "제": 9320,
      "젝": 9321,
      "젠": 9322,
      "젤": 9323,
      "젯": 9324,
      "져": 9325,
      "졌": 9326,
      "조": 9327,
      "족": 9328,
      "존": 9329,
      "좀": 9330,
      "좁": 9331,
      "종": 9332,
      "좋": 9333,
      "좌": 9334,
      "죄": 9335,
      "죠": 9336,
      "주": 9337,
      "죽": 9338,
      "준": 9339,
      "줄": 9340,
      "줍": 9341,
      "중": 9342,
      "줘": 9343,
      "쥐": 9344,
      "즈": 9345,
      "즉": 9346,
      "즐": 9347,
      "즘": 9348,
      "증": 9349,
      "지": 9350,
      "직": 9351,
      "진": 9352,
      "질": 9353,
      "짐": 9354,
      "집": 9355,
      "짓": 9356,
      "징": 9357,
      "짜": 9358,
      "짝": 9359,
      "짤": 9360,
      "짧": 9361,
      "짰": 9362,
      "짱": 9363,
      "째": 9364,
      "쪼": 9365,
      "쪽": 9366,
      "찌": 9367,
      "차": 9368,
      "착": 9369,
      "찬": 9370,
      "찮": 9371,
      "찰": 9372,
      "참": 9373,
      "창": 9374,
      "찾": 9375,
      "채": 9376,
      "책": 9377,
      "챕": 9378,
      "챗": 9379,
      "처": 9380,
      "천": 9381,
      "철": 9382,
      "첨": 9383,
      "첩": 9384,
      "첫": 9385,
      "청": 9386,
      "체": 9387,
      "쳐": 9388,
      "쳤": 9389,
      "초": 9390,
      "촉": 9391,
      "촌": 9392,
      "촘": 9393,
      "총": 9394,
      "최": 9395,
      "추": 9396,
      "축": 9397,
      "춘": 9398,
      "출": 9399,
      "춤": 9400,
      "춥": 9401,
      "충": 9402,
      "춰": 9403,
      "췄": 9404,
      "취": 9405,
      "츠": 9406,
      "측": 9407,
      "층": 9408,
      "치": 9409,
      "칙": 9410,
      "친": 9411,
      "칠": 9412,
      "침": 9413,
      "칩": 9414,
      "칭": 9415,
      "카": 9416,
      "칵": 9417,
      "칸": 9418,
      "캐": 9419,
      "캔": 9420,
      "캘": 9421,
      "캠": 9422,
      "캡": 9423,
      "커": 9424,
      "컨": 9425,
      "컬": 9426,
      "컴": 9427,
      "케": 9428,
      "켄": 9429,
      "켓": 9430,
      "켜": 9431,
      "켰": 9432,
      "코": 9433,
      "콘": 9434,
      "콜": 9435,
      "쾌": 9436,
      "쿄": 9437,
      "쿠": 9438,
      "쿼": 9439,
      "퀄": 9440,
      "퀘": 9441,
      "퀴": 9442,
      "큐": 9443,
      "크": 9444,
      "큰": 9445,
      "클": 9446,
      "큼": 9447,
      "큽": 9448,
      "키": 9449,
      "킨": 9450,
      "킬": 9451,
      "킴": 9452,
      "킵": 9453,
      "킹": 9454,
      "타": 9455,
      "탁": 9456,
      "탄": 9457,
      "탈": 9458,
      "탐": 9459,
      "탑": 9460,
      "탕": 9461,
      "태": 9462,
      "택": 9463,
      "탠": 9464,
      "탱": 9465,
      "터": 9466,
      "턴": 9467,
      "털": 9468,
      "텀": 9469,
      "테": 9470,
      "텍": 9471,
      "텐": 9472,
      "텔": 9473,
      "템": 9474,
      "토": 9475,
      "톤": 9476,
      "톱": 9477,
      "통": 9478,
      "퇴": 9479,
      "투": 9480,
      "툰": 9481,
      "툴": 9482,
      "튜": 9483,
      "트": 9484,
      "특": 9485,
      "튼": 9486,
      "틀": 9487,
      "티": 9488,
      "틸": 9489,
      "팀": 9490,
      "팁": 9491,
      "팅": 9492,
      "파": 9493,
      "판": 9494,
      "팔": 9495,
      "팠": 9496,
      "패": 9497,
      "팸": 9498,
      "팹": 9499,
      "퍼": 9500,
      "펌": 9501,
      "펐": 9502,
      "페": 9503,
      "펜": 9504,
      "펠": 9505,
      "펫": 9506,
      "펴": 9507,
      "편": 9508,
      "펼": 9509,
      "평": 9510,
      "폐": 9511,
      "포": 9512,
      "폭": 9513,
      "폰": 9514,
      "폴": 9515,
      "폼": 9516,
      "표": 9517,
      "푸": 9518,
      "푼": 9519,
      "풀": 9520,
      "품": 9521,
      "풍": 9522,
      "퓨": 9523,
      "프": 9524,
      "픈": 9525,
      "플": 9526,
      "피": 9527,
      "픽": 9528,
      "핀": 9529,
      "필": 9530,
      "핑": 9531,
      "하": 9532,
      "학": 9533,
      "한": 9534,
      "할": 9535,
      "함": 9536,
      "합": 9537,
      "핫": 9538,
      "항": 9539,
      "해": 9540,
      "핵": 9541,
      "했": 9542,
      "행": 9543,
      "향": 9544,
      "허": 9545,
      "헌": 9546,
      "험": 9547,
      "헤": 9548,
      "헥": 9549,
      "혀": 9550,
      "혁": 9551,
      "현": 9552,
      "혈": 9553,
      "협": 9554,
      "혔": 9555,
      "형": 9556,
      "혜": 9557,
      "호": 9558,
      "혹": 9559,
      "혼": 9560,
      "홀": 9561,
      "홈": 9562,
      "홍": 9563,
      "화": 9564,
      "확": 9565,
      "환": 9566,
      "활": 9567,
      "황": 9568,
      "회": 9569,
      "획": 9570,
      "횡": 9571,
      "효": 9572,
      "후": 9573,
      "훈": 9574,
      "훌": 9575,
      "훨": 9576,
      "휘": 9577,
      "휩": 9578,
      "휴": 9579,
      "흐": 9580,
      "흑": 9581,
      "흔": 9582,
      "흡": 9583,
      "흥": 9584,
      "희": 9585,
      "히": 9586,
      "힌": 9587,
      "힐": 9588,
      "힘": 9589,
      "": 9590,
      "": 9591,
      "": 9592,
      "": 9593,
      "": 9594,
      "": 9595,
      "": 9596,
      "": 9597,
      "": 9598,
      "": 9599,
      "": 9600,
      "": 9601,
      "樂": 9602,
      "連": 9603,
      "ﬁ": 9604,
      "ﬂ": 9605,
      "︎": 9606,
      "️": 9607,
      "︶": 9608,
      "︹": 9609,
      "︺": 9610,
      "﹑": 9611,
      "﹒": 9612,
      "﻿": 9613,
      "！": 9614,
      "＂": 9615,
      "＃": 9616,
      "＄": 9617,
      "％": 9618,
      "＆": 9619,
      "＇": 9620,
      "（": 9621,
      "）": 9622,
      "＊": 9623,
      "＋": 9624,
      "，": 9625,
      "－": 9626,
      "．": 9627,
      "／": 9628,
      "０": 9629,
      "１": 9630,
      "２": 9631,
      "３": 9632,
      "４": 9633,
      "５": 9634,
      "６": 9635,
      "７": 9636,
      "８": 9637,
      "：": 9638,
      "；": 9639,
      "＜": 9640,
      "＝": 9641,
      "＞": 9642,
      "？": 9643,
      "＠": 9644,
      "Ｂ": 9645,
      "Ｈ": 9646,
      "Ｍ": 9647,
      "Ｒ": 9648,
      "Ｓ": 9649,
      "Ｔ": 9650,
      "Ｘ": 9651,
      "［": 9652,
      "＼": 9653,
      "］": 9654,
      "＾": 9655,
      "＿": 9656,
      "｀": 9657,
      "ａ": 9658,
      "ｄ": 9659,
      "ｅ": 9660,
      "ｈ": 9661,
      "ｉ": 9662,
      "ｌ": 9663,
      "ｍ": 9664,
      "ｎ": 9665,
      "ｏ": 9666,
      "ｐ": 9667,
      "ｒ": 9668,
      "ｓ": 9669,
      "ｔ": 9670,
      "ｕ": 9671,
      "ｖ": 9672,
      "ｗ": 9673,
      "｛": 9674,
      "｜": 9675,
      "｝": 9676,
      "～": 9677,
      "｡": 9678,
      "･": 9679,
      "ﾉ": 9680,
      "ﾟ": 9681,
      "￣": 9682,
      "￥": 9683,
      "�": 9684,
      "𓄿": 9685,
      "𓇋": 9686,
      "𓊪": 9687,
      "𓎛": 9688,
      "𓎼": 9689,
      "𓏏": 9690,
      "𝐏": 9691,
      "𝐒": 9692,
      "𝐗": 9693,
      "𝐯": 9694,
      "𝑁": 9695,
      "𝑇": 9696,
      "𝑒": 9697,
      "𝑘": 9698,
      "𝑥": 9699,
      "𝑨": 9700,
      "𝑮": 9701,
      "𝒆": 9702,
      "𝒊": 9703,
      "𝒓": 9704,
      "𝒜": 9705,
      "𝒸": 9706,
      "𝒾": 9707,
      "𝓁": 9708,
      "𝛼": 9709,
      "𝜋": 9710,
      "🅰": 9711,
      "🅱": 9712,
      "🆘": 9713,
      "🇦": 9714,
      "🇧": 9715,
      "🇨": 9716,
      "🇩": 9717,
      "🇪": 9718,
      "🇫": 9719,
      "🇬": 9720,
      "🇭": 9721,
      "🇮": 9722,
      "🇯": 9723,
      "🇱": 9724,
      "🇲": 9725,
      "🇳": 9726,
      "🇴": 9727,
      "🇵": 9728,
      "🇶": 9729,
      "🇷": 9730,
      "🇸": 9731,
      "🇹": 9732,
      "🇺": 9733,
      "🇻": 9734,
      "🇼": 9735,
      "🇾": 9736,
      "🇿": 9737,
      "🌀": 9738,
      "🌃": 9739,
      "🌄": 9740,
      "🌅": 9741,
      "🌇": 9742,
      "🌈": 9743,
      "🌉": 9744,
      "🌊": 9745,
      "🌌": 9746,
      "🌍": 9747,
      "🌎": 9748,
      "🌏": 9749,
      "🌐": 9750,
      "🌑": 9751,
      "🌔": 9752,
      "🌕": 9753,
      "🌙": 9754,
      "🌝": 9755,
      "🌞": 9756,
      "🌟": 9757,
      "🌠": 9758,
      "🌡": 9759,
      "🌤": 9760,
      "🌦": 9761,
      "🌧": 9762,
      "🌨": 9763,
      "🌩": 9764,
      "🌪": 9765,
      "🌫": 9766,
      "🌬": 9767,
      "🌭": 9768,
      "🌮": 9769,
      "🌯": 9770,
      "🌱": 9771,
      "🌲": 9772,
      "🌳": 9773,
      "🌴": 9774,
      "🌵": 9775,
      "🌶": 9776,
      "🌷": 9777,
      "🌸": 9778,
      "🌹": 9779,
      "🌺": 9780,
      "🌻": 9781,
      "🌼": 9782,
      "🌽": 9783,
      "🌾": 9784,
      "🌿": 9785,
      "🍀": 9786,
      "🍁": 9787,
      "🍂": 9788,
      "🍃": 9789,
      "🍄": 9790,
      "🍅": 9791,
      "🍇": 9792,
      "🍉": 9793,
      "🍊": 9794,
      "🍋": 9795,
      "🍌": 9796,
      "🍍": 9797,
      "🍎": 9798,
      "🍑": 9799,
      "🍒": 9800,
      "🍓": 9801,
      "🍔": 9802,
      "🍕": 9803,
      "🍖": 9804,
      "🍗": 9805,
      "🍘": 9806,
      "🍙": 9807,
      "🍚": 9808,
      "🍛": 9809,
      "🍜": 9810,
      "🍝": 9811,
      "🍞": 9812,
      "🍟": 9813,
      "🍠": 9814,
      "🍡": 9815,
      "🍣": 9816,
      "🍤": 9817,
      "🍥": 9818,
      "🍦": 9819,
      "🍧": 9820,
      "🍨": 9821,
      "🍩": 9822,
      "🍪": 9823,
      "🍫": 9824,
      "🍬": 9825,
      "🍭": 9826,
      "🍮": 9827,
      "🍯": 9828,
      "🍰": 9829,
      "🍱": 9830,
      "🍲": 9831,
      "🍳": 9832,
      "🍴": 9833,
      "🍵": 9834,
      "🍷": 9835,
      "🍸": 9836,
      "🍹": 9837,
      "🍺": 9838,
      "🍻": 9839,
      "🍼": 9840,
      "🍽": 9841,
      "🍾": 9842,
      "🍿": 9843,
      "🎁": 9844,
      "🎂": 9845,
      "🎄": 9846,
      "🎅": 9847,
      "🎆": 9848,
      "🎇": 9849,
      "🎈": 9850,
      "🎉": 9851,
      "🎊": 9852,
      "🎌": 9853,
      "🎏": 9854,
      "🎑": 9855,
      "🎒": 9856,
      "🎓": 9857,
      "🎖": 9858,
      "🎗": 9859,
      "🎙": 9860,
      "🎞": 9861,
      "🎟": 9862,
      "🎡": 9863,
      "🎢": 9864,
      "🎣": 9865,
      "🎤": 9866,
      "🎥": 9867,
      "🎧": 9868,
      "🎨": 9869,
      "🎪": 9870,
      "🎬": 9871,
      "🎭": 9872,
      "🎮": 9873,
      "🎯": 9874,
      "🎲": 9875,
      "🎵": 9876,
      "🎶": 9877,
      "🎷": 9878,
      "🎸": 9879,
      "🎺": 9880,
      "🎼": 9881,
      "🎽": 9882,
      "🎾": 9883,
      "🏀": 9884,
      "🏃": 9885,
      "🏄": 9886,
      "🏅": 9887,
      "🏆": 9888,
      "🏈": 9889,
      "🏊": 9890,
      "🏋": 9891,
      "🏍": 9892,
      "🏒": 9893,
      "🏔": 9894,
      "🏕": 9895,
      "🏖": 9896,
      "🏙": 9897,
      "🏜": 9898,
      "🏝": 9899,
      "🏞": 9900,
      "🏠": 9901,
      "🏡": 9902,
      "🏢": 9903,
      "🏧": 9904,
      "🏫": 9905,
      "🏯": 9906,
      "🏰": 9907,
      "🏳": 9908,
      "🏻": 9909,
      "🏼": 9910,
      "🏽": 9911,
      "🏾": 9912,
      "🐅": 9913,
      "🐆": 9914,
      "🐇": 9915,
      "🐋": 9916,
      "🐎": 9917,
      "🐒": 9918,
      "🐔": 9919,
      "🐕": 9920,
      "🐘": 9921,
      "🐚": 9922,
      "🐛": 9923,
      "🐝": 9924,
      "🐟": 9925,
      "🐠": 9926,
      "🐢": 9927,
      "🐥": 9928,
      "🐦": 9929,
      "🐧": 9930,
      "🐨": 9931,
      "🐩": 9932,
      "🐬": 9933,
      "🐯": 9934,
      "🐰": 9935,
      "🐱": 9936,
      "🐲": 9937,
      "🐴": 9938,
      "🐶": 9939,
      "🐷": 9940,
      "🐹": 9941,
      "🐺": 9942,
      "🐻": 9943,
      "🐼": 9944,
      "🐾": 9945,
      "🐿": 9946,
      "👀": 9947,
      "👃": 9948,
      "👇": 9949,
      "👈": 9950,
      "👉": 9951,
      "👊": 9952,
      "👋": 9953,
      "👌": 9954,
      "👍": 9955,
      "👏": 9956,
      "👑": 9957,
      "👒": 9958,
      "👓": 9959,
      "👔": 9960,
      "👗": 9961,
      "👙": 9962,
      "👜": 9963,
      "👟": 9964,
      "👣": 9965,
      "👤": 9966,
      "👥": 9967,
      "👦": 9968,
      "👧": 9969,
      "👨": 9970,
      "👩": 9971,
      "👪": 9972,
      "👭": 9973,
      "👴": 9974,
      "👵": 9975,
      "👶": 9976,
      "👷": 9977,
      "👸": 9978,
      "👻": 9979,
      "👽": 9980,
      "👾": 9981,
      "💀": 9982,
      "💁": 9983,
      "💃": 9984,
      "💄": 9985,
      "💅": 9986,
      "💇": 9987,
      "💉": 9988,
      "💋": 9989,
      "💍": 9990,
      "💎": 9991,
      "💐": 9992,
      "💔": 9993,
      "💕": 9994,
      "💖": 9995,
      "💗": 9996,
      "💙": 9997,
      "💚": 9998,
      "💛": 9999,
      "💝": 10000,
      "💡": 10001,
      "💢": 10002,
      "💣": 10003,
      "💤": 10004,
      "💥": 10005,
      "💦": 10006,
      "💧": 10007,
      "💨": 10008,
      "💩": 10009,
      "💪": 10010,
      "💫": 10011,
      "💬": 10012,
      "💭": 10013,
      "💯": 10014,
      "💰": 10015,
      "💳": 10016,
      "💸": 10017,
      "💻": 10018,
      "💼": 10019,
      "📁": 10020,
      "📅": 10021,
      "📆": 10022,
      "📈": 10023,
      "📌": 10024,
      "📖": 10025,
      "📚": 10026,
      "📝": 10027,
      "📞": 10028,
      "📢": 10029,
      "📣": 10030,
      "📦": 10031,
      "📩": 10032,
      "📱": 10033,
      "📲": 10034,
      "📸": 10035,
      "📹": 10036,
      "🔀": 10037,
      "🔍": 10038,
      "🔎": 10039,
      "🔑": 10040,
      "🔒": 10041,
      "🔓": 10042,
      "🔔": 10043,
      "🔗": 10044,
      "🔜": 10045,
      "🔝": 10046,
      "🔟": 10047,
      "🔥": 10048,
      "🔨": 10049,
      "🔪": 10050,
      "🔫": 10051,
      "🔬": 10052,
      "🔭": 10053,
      "🔮": 10054,
      "🔲": 10055,
      "🔴": 10056,
      "🔸": 10057,
      "🕊": 10058,
      "🕯": 10059,
      "🕰": 10060,
      "🕳": 10061,
      "🕵": 10062,
      "🕶": 10063,
      "🕷": 10064,
      "🕹": 10065,
      "🕺": 10066,
      "🖊": 10067,
      "🖌": 10068,
      "🖼": 10069,
      "🗑": 10070,
      "🗓": 10071,
      "🗣": 10072,
      "🗳": 10073,
      "🗺": 10074,
      "🗼": 10075,
      "🗿": 10076,
      "😀": 10077,
      "😁": 10078,
      "😂": 10079,
      "😃": 10080,
      "😄": 10081,
      "😅": 10082,
      "😆": 10083,
      "😈": 10084,
      "😉": 10085,
      "😊": 10086,
      "😋": 10087,
      "😌": 10088,
      "😍": 10089,
      "😎": 10090,
      "😏": 10091,
      "😐": 10092,
      "😒": 10093,
      "😓": 10094,
      "😔": 10095,
      "😕": 10096,
      "😖": 10097,
      "😘": 10098,
      "😛": 10099,
      "😜": 10100,
      "😞": 10101,
      "😟": 10102,
      "😠": 10103,
      "😡": 10104,
      "😢": 10105,
      "😤": 10106,
      "😩": 10107,
      "😪": 10108,
      "😫": 10109,
      "😬": 10110,
      "😭": 10111,
      "😮": 10112,
      "😰": 10113,
      "😱": 10114,
      "😴": 10115,
      "😷": 10116,
      "🙁": 10117,
      "🙂": 10118,
      "🙃": 10119,
      "🙄": 10120,
      "🙅": 10121,
      "🙈": 10122,
      "🙌": 10123,
      "🙏": 10124,
      "🚀": 10125,
      "🚂": 10126,
      "🚑": 10127,
      "🚒": 10128,
      "🚕": 10129,
      "🚗": 10130,
      "🚘": 10131,
      "🚙": 10132,
      "🚚": 10133,
      "🚛": 10134,
      "🚢": 10135,
      "🚣": 10136,
      "🚤": 10137,
      "🚧": 10138,
      "🚨": 10139,
      "🚩": 10140,
      "🚪": 10141,
      "🚫": 10142,
      "🚭": 10143,
      "🚲": 10144,
      "🚴": 10145,
      "🚶": 10146,
      "🚻": 10147,
      "🚽": 10148,
      "🛁": 10149,
      "🛍": 10150,
      "🛡": 10151,
      "🛫": 10152,
      "🛰": 10153,
      "🛸": 10154,
      "🤌": 10155,
      "🤐": 10156,
      "🤑": 10157,
      "🤒": 10158,
      "🤓": 10159,
      "🤔": 10160,
      "🤕": 10161,
      "🤖": 10162,
      "🤗": 10163,
      "🤘": 10164,
      "🤝": 10165,
      "🤞": 10166,
      "🤡": 10167,
      "🤢": 10168,
      "🤣": 10169,
      "🤤": 10170,
      "🤦": 10171,
      "🤧": 10172,
      "🤨": 10173,
      "🤩": 10174,
      "🤪": 10175,
      "🤫": 10176,
      "🤬": 10177,
      "🤭": 10178,
      "🤯": 10179,
      "🤱": 10180,
      "🤳": 10181,
      "🤷": 10182,
      "🤸": 10183,
      "🤿": 10184,
      "🥁": 10185,
      "🥂": 10186,
      "🥃": 10187,
      "🥅": 10188,
      "🥇": 10189,
      "🥊": 10190,
      "🥋": 10191,
      "🥏": 10192,
      "🥐": 10193,
      "🥑": 10194,
      "🥒": 10195,
      "🥓": 10196,
      "🥔": 10197,
      "🥕": 10198,
      "🥖": 10199,
      "🥗": 10200,
      "🥘": 10201,
      "🥚": 10202,
      "🥛": 10203,
      "🥟": 10204,
      "🥠": 10205,
      "🥢": 10206,
      "🥦": 10207,
      "🥧": 10208,
      "🥩": 10209,
      "🥪": 10210,
      "🥬": 10211,
      "🥮": 10212,
      "🥰": 10213,
      "🥱": 10214,
      "🥳": 10215,
      "🥴": 10216,
      "🥵": 10217,
      "🥺": 10218,
      "🥾": 10219,
      "🦁": 10220,
      "🦃": 10221,
      "🦅": 10222,
      "🦊": 10223,
      "🦋": 10224,
      "🦌": 10225,
      "🦐": 10226,
      "🦑": 10227,
      "🦒": 10228,
      "🦔": 10229,
      "🦕": 10230,
      "🦚": 10231,
      "🦜": 10232,
      "🦠": 10233,
      "🦮": 10234,
      "🦰": 10235,
      "🦱": 10236,
      "🦺": 10237,
      "🧀": 10238,
      "🧁": 10239,
      "🧂": 10240,
      "🧐": 10241,
      "🧑": 10242,
      "🧒": 10243,
      "🧔": 10244,
      "🧖": 10245,
      "🧘": 10246,
      "🧚": 10247,
      "🧝": 10248,
      "🧠": 10249,
      "🧡": 10250,
      "🧪": 10251,
      "🧫": 10252,
      "🧬": 10253,
      "🧯": 10254,
      "🧴": 10255,
      "🧸": 10256,
      "🧹": 10257,
      "🧻": 10258,
      "🧼": 10259,
      "🪄": 10260,
      "🪑": 10261,
      "🪞": 10262,
      "🫵": 10263,
      "🫶": 10264,
      "𥅴": 10265,
      "𨧀": 10266,
      "𨨏": 10267,
      "𨭆": 10268,
      "𨭇": 10269,
      "𨭈": 10270,
      "𨭊": 10271,
      "𨭎": 10272,
      "𨭐": 10273,
      "𫟼": 10274,
      "𬬻": 10275,
      "𬭊": 10276,
      "𬭛": 10277,
      "𬭬": 10278,
      "𬭳": 10279,
      "e ": 10280,
      "s ": 10281,
      "in": 10282,
      "an": 10283,
      "th": 10284,
      "d ": 10285,
      "er": 10286,
      "t ": 10287,
      "on": 10288,
      "en": 10289,
      "or": 10290,
      "ti": 10291,
      ", ": 10292,
      "al": 10293,
      ". ": 10294,
      "y ": 10295,
      "re": 10296,
      "and ": 10297,
      "ing": 10298,
      "o ": 10299,
      "ar": 10300,
      "ou": 10301,
      "the ": 10302,
      "ing ": 10303,
      "to ": 10304,
      "es": 10305,
      "  ": 10306,
      "of": 10307,
      "at": 10308,
      "st": 10309,
      "tion": 10310,
      "a ": 10311,
      "ed ": 10312,
      "ro": 10313,
      "of ": 10314,
      "ic": 10315,
      "es ": 10316,
      "el": 10317,
      "ac": 10318,
      "an ": 10319,
      "al ": 10320,
      "it": 10321,
      "om": 10322,
      "or ": 10323,
      "in ": 10324,
      "ec": 10325,
      "at ": 10326,
      "is ": 10327,
      "er ": 10328,
      "su": 10329,
      "us": 10330,
      "em": 10331,
      "ation": 10332,
      "il": 10333,
      "pl": 10334,
      "\n\n": 10335,
      "pro": 10336,
      "。\n": 10337,
      "is": 10338,
      "can ": 10339,
      "ve ": 10340,
      "ch": 10341,
      "that ": 10342,
      "id": 10343,
      "as": 10344,
      "ol": 10345,
      "ent": 10346,
      "ow": 10347,
      "Th": 10348,
      "im": 10349,
      "    ": 10350,
      "as ": 10351,
      "you": 10352,
      "r ": 10353,
      "ab": 10354,
      "am": 10355,
      "ex": 10356,
      ".\n\n": 10357,
      "I ": 10358,
      ": ": 10359,
      "di": 10360,
      "are ": 10361,
      "th ": 10362,
      "on ": 10363,
      "ur": 10364,
      "s, ": 10365,
      "for ": 10366,
      "et": 10367,
      "ev": 10368,
      "ent ": 10369,
      "tr": 10370,
      "all": 10371,
      "ul": 10372,
      "ig": 10373,
      "op": 10374,
      "con": 10375,
      "ag": 10376,
      "un": 10377,
      "ad": 10378,
      "com": 10379,
      "le": 10380,
      "wi": 10381,
      "res": 10382,
      "wh": 10383,
      "s and ": 10384,
      "the": 10385,
      ". Th": 10386,
      "be ": 10387,
      "可以": 10388,
      "with ": 10389,
      "p ": 10390,
      "ak": 10391,
      ", and ": 10392,
      "en ": 10393,
      "for": 10394,
      "h ": 10395,
      "ed": 10396,
      "le ": 10397,
      "ation ": 10398,
      "k ": 10399,
      "os": 10400,
      "ot": 10401,
      "ce ": 10402,
      "ha": 10403,
      "per": 10404,
      "you ": 10405,
      "oc": 10406,
      "li": 10407,
      "m ": 10408,
      "ate ": 10409,
      "AI ": 10410,
      "ver": 10411,
      "sp": 10412,
      "qu": 10413,
      "si": 10414,
      "cl": 10415,
      "ere ": 10416,
      "ff": 10417,
      "ri": 10418,
      "n ": 10419,
      "vid": 10420,
      "ap": 10421,
      "ir ": 10422,
      "wor": 10423,
      "ed to ": 10424,
      "uc": 10425,
      "sh": 10426,
      "int": 10427,
      "it ": 10428,
      "e, ": 10429,
      "--": 10430,
      "s to ": 10431,
      "tic": 10432,
      "ne": 10433,
      "hel": 10434,
      "'s ": 10435,
      "e of ": 10436,
      "ir": 10437,
      "og": 10438,
      "一个": 10439,
      "- ": 10440,
      "ay ": 10441,
      "their ": 10442,
      "be": 10443,
      "por": 10444,
      "| ": 10445,
      "ud": 10446,
      "oun": 10447,
      "ore ": 10448,
      "我们": 10449,
      "ow ": 10450,
      "enti": 10451,
      "ch ": 10452,
      "ay": 10453,
      "ic ": 10454,
      "ld ": 10455,
      "enc": 10456,
      "oo": 10457,
      "s of ": 10458,
      "um": 10459,
      "ess": 10460,
      "ity ": 10461,
      "iz": 10462,
      "l ": 10463,
      "需要": 10464,
      "iti": 10465,
      "ain": 10466,
      "your ": 10467,
      "es, ": 10468,
      "ut": 10469,
      "ly ": 10470,
      "in the ": 10471,
      "more ": 10472,
      "he": 10473,
      "if": 10474,
      "ang": 10475,
      "sur": 10476,
      "ther ": 10477,
      "ment": 10478,
      "igh": 10479,
      "ati": 10480,
      "out ": 10481,
      "s. ": 10482,
      "? ": 10483,
      "ould ": 10484,
      "have ": 10485,
      "provid": 10486,
      "tion ": 10487,
      "fe": 10488,
      "by ": 10489,
      "y, ": 10490,
      "str": 10491,
      "help ": 10492,
      "ome ": 10493,
      "1. ": 10494,
      "se": 10495,
      "2. ": 10496,
      "gr": 10497,
      "cre": 10498,
      "evel": 10499,
      "able ": 10500,
      "our": 10501,
      "ers ": 10502,
      "me": 10503,
      "        ": 10504,
      "3. ": 10505,
      "dat": 10506,
      "：\n": 10507,
      "pr": 10508,
      "w ": 10509,
      "ant ": 10510,
      "man": 10511,
      "tec": 10512,
      "。 ": 10513,
      "so ": 10514,
      "ef": 10515,
      "es and ": 10516,
      "ese ": 10517,
      "can be ": 10518,
      "pre": 10519,
      "sy": 10520,
      "end": 10521,
      "fro": 10522,
      "no": 10523,
      "00": 10524,
      "dis": 10525,
      "comm": 10526,
      "ical ": 10527,
      "from ": 10528,
      "4. ": 10529,
      ". This ": 10530,
      "evelop": 10531,
      "and": 10532,
      "stem": 10533,
      "ts ": 10534,
      "ar ": 10535,
      "tim": 10536,
      "ake ": 10537,
      "hn": 10538,
      "acc": 10539,
      "such ": 10540,
      "e and ": 10541,
      "av": 10542,
      "ter": 10543,
      "develop": 10544,
      "port": 10545,
      "duc": 10546,
      "，并": 10547,
      "od": 10548,
      "some ": 10549,
      "ampl": 10550,
      "we": 10551,
      "form": 10552,
      "ing the ": 10553,
      "s that ": 10554,
      "heal": 10555,
      ". The ": 10556,
      "such as ": 10557,
      "e to ": 10558,
      "has ": 10559,
      "使用": 10560,
      "est": 10561,
      "e that ": 10562,
      " | ": 10563,
      "ment ": 10564,
      "par": 10565,
      "ial ": 10566,
      "ure": 10567,
      "of the ": 10568,
      "system": 10569,
      "tiv": 10570,
      "olog": 10571,
      "lear": 10572,
      "s.\n\n": 10573,
      "anc": 10574,
      "ere are ": 10575,
      "du": 10576,
      "also ": 10577,
      "about ": 10578,
      "bu": 10579,
      "ever": 10580,
      "exampl": 10581,
      "techn": 10582,
      "incl": 10583,
      "问题": 10584,
      "s, and ": 10585,
      "impro": 10586,
      "ob": 10587,
      "ign": 10588,
      "ach": 10589,
      "vi": 10590,
      "ear": 10591,
      "The ": 10592,
      "used to ": 10593,
      "they ": 10594,
      "are": 10595,
      "ies ": 10596,
      "__": 10597,
      "how ": 10598,
      "other ": 10599,
      "5. ": 10600,
      "ep": 10601,
      "can help ": 10602,
      "provide ": 10603,
      "ich ": 10604,
      "ser": 10605,
      "eng": 10606,
      "over": 10607,
      ":\n\n": 10608,
      "ect": 10609,
      "ensur": 10610,
      "ine ": 10611,
      "进行": 10612,
      "= ": 10613,
      "eff": 10614,
      ". I": 10615,
      "includ": 10616,
      "soc": 10617,
      "ful": 10618,
      "自己": 10619,
      "pe": 10620,
      "der": 10621,
      "ail": 10622,
      "all ": 10623,
      "data ": 10624,
      "bl": 10625,
      "ence ": 10626,
      "work": 10627,
      "ential ": 10628,
      "pac": 10629,
      "inter": 10630,
      "which ": 10631,
      "oug": 10632,
      "age ": 10633,
      "ell": 10634,
      "tur": 10635,
      "them": 10636,
      "wil": 10637,
      "spec": 10638,
      "was ": 10639,
      "not ": 10640,
      "----": 10641,
      "rec": 10642,
      "ast": 10643,
      ".\n": 10644,
      "aly": 10645,
      "ion": 10646,
      "fl": 10647,
      "any ": 10648,
      "oll": 10649,
      "diff": 10650,
      "et ": 10651,
      "，以": 10652,
      "y and ": 10653,
      "est ": 10654,
      "lik": 10655,
      "son": 10656,
      "pos": 10657,
      "exper": 10658,
      "our ": 10659,
      "technolog": 10660,
      "ener": 10661,
      "these ": 10662,
      "cont": 10663,
      "ning ": 10664,
      "一些": 10665,
      "its ": 10666,
      "e. ": 10667,
      "ous ": 10668,
      "ust": 10669,
      "analy": 10670,
      "eth": 10671,
      "we ": 10672,
      "通过": 10673,
      "hum": 10674,
      "on the ": 10675,
      "way": 10676,
      "ance ": 10677,
      "ity": 10678,
      "my ": 10679,
      "fac": 10680,
      "this ": 10681,
      "ov": 10682,
      "ph": 10683,
      "ated ": 10684,
      "中，": 10685,
      "提供": 10686,
      "这个": 10687,
      "e the ": 10688,
      "pot": 10689,
      "ess ": 10690,
      "tive ": 10691,
      "dition": 10692,
      "out": 10693,
      "tran": 10694,
      "ain ": 10695,
      "选择": 10696,
      "es of ": 10697,
      "``": 10698,
      "ong": 10699,
      "abil": 10700,
      "impac": 10701,
      "af": 10702,
      "sup": 10703,
      "ement": 10704,
      "\" ": 10705,
      "may ": 10706,
      ":\n\n1. ": 10707,
      "ect ": 10708,
      "sc": 10709,
      "可能": 10710,
      "ally ": 10711,
      "sel": 10712,
      "serv": 10713,
      "is a ": 10714,
      "resp": 10715,
      "used ": 10716,
      "ori": 10717,
      "好的": 10718,
      "s in ": 10719,
      "ad ": 10720,
      "ill": 10721,
      "improve ": 10722,
      "不同": 10723,
      "如果": 10724,
      "es. ": 10725,
      "off": 10726,
      "vir": 10727,
      "ing to ": 10728,
      "ant": 10729,
      "bot": 10730,
      "ard": 10731,
      "s are ": 10732,
      "mar": 10733,
      "ensure that ": 10734,
      "ood ": 10735,
      "des": 10736,
      "es to ": 10737,
      "po": 10738,
      "will ": 10739,
      "ip": 10740,
      "potential ": 10741,
      "pres": 10742,
      "! ": 10743,
      "inform": 10744,
      "make ": 10745,
      "s: ": 10746,
      "rel": 10747,
      "new ": 10748,
      "ienc": 10749,
      "Wh": 10750,
      "ter ": 10751,
      "ind": 10752,
      "te": 10753,
      "comp": 10754,
      "entif": 10755,
      "br": 10756,
      "commun": 10757,
      "非常": 10758,
      "eg": 10759,
      "时，": 10760,
      "rit": 10761,
      "au": 10762,
      "AI": 10763,
      "bo": 10764,
      "ing and ": 10765,
      "重要": 10766,
      "s for ": 10767,
      "\n    ": 10768,
      "s can ": 10769,
      "，这": 10770,
      "ased ": 10771,
      "se ": 10772,
      "person": 10773,
      "stud": 10774,
      "t of ": 10775,
      "20": 10776,
      "ist": 10777,
      "could ": 10778,
      "他们": 10779,
      ") ": 10780,
      "ust ": 10781,
      "health": 10782,
      "pow": 10783,
      "包括": 10784,
      "dec": 10785,
      "ther": 10786,
      "\n- ": 10787,
      "chang": 10788,
      "Can ": 10789,
      "import": 10790,
      "是一": 10791,
      "differ": 10792,
      "ely ": 10793,
      "gre": 10794,
      "自己的": 10795,
      "use ": 10796,
      "can be used to ": 10797,
      "own ": 10798,
      "ass": 10799,
      "respon": 10800,
      "ach ": 10801,
      "inv": 10802,
      "数据": 10803,
      "bi": 10804,
      "to": 10805,
      "ustom": 10806,
      "ari": 10807,
      "ound ": 10808,
      "a s": 10809,
      "。这": 10810,
      "以下": 10811,
      "kn": 10812,
      "mental ": 10813,
      " and ": 10814,
      "帮助": 10815,
      "alg": 10816,
      "公司": 10817,
      "中的": 10818,
      "atur": 10819,
      "under": 10820,
      "sib": 10821,
      "aking ": 10822,
      "de": 10823,
      "ight ": 10824,
      "sion": 10825,
      "orith": 10826,
      "|\n": 10827,
      "ile ": 10828,
      "bet": 10829,
      "identif": 10830,
      "reg": 10831,
      "ative ": 10832,
      "eas": 10833,
      "，我们": 10834,
      "who ": 10835,
      "algorith": 10836,
      "ating ": 10837,
      "el ": 10838,
      "if ": 10839,
      "analyz": 10840,
      "，可以": 10841,
      "one ": 10842,
      "根据": 10843,
      "custom": 10844,
      "ing, ": 10845,
      "ey ": 10846,
      "cer": 10847,
      "能够": 10848,
      "ra": 10849,
      "should ": 10850,
      "。\n2. ": 10851,
      "opl": 10852,
      "learning ": 10853,
      "produc": 10854,
      "fin": 10855,
      "roug": 10856,
      "but ": 10857,
      "In": 10858,
      "divid": 10859,
      ". H": 10860,
      "ris": 10861,
      "es.\n\n": 10862,
      "，但": 10863,
      "sid": 10864,
      "viron": 10865,
      "\n        ": 10866,
      "like ": 10867,
      "tre": 10868,
      "aliz": 10869,
      "duce ": 10870,
      "proc": 10871,
      "ourc": 10872,
      "ack ": 10873,
      "。\n3. ": 10874,
      "arg": 10875,
      "ight": 10876,
      "port ": 10877,
      "影响": 10878,
      "时间": 10879,
      "ific": 10880,
      "peopl": 10881,
      "det": 10882,
      "dividu": 10883,
      "loc": 10884,
      "environ": 10885,
      "work ": 10886,
      "me ": 10887,
      ": AI ": 10888,
      "to the ": 10889,
      "Can you ": 10890,
      "ack": 10891,
      "oy": 10892,
      "gram": 10893,
      "方式": 10894,
      "e of the ": 10895,
      "wat": 10896,
      "sk": 10897,
      "10": 10898,
      "es that ": 10899,
      "them ": 10900,
      "提高": 10901,
      "plac": 10902,
      "环境": 10903,
      "pri": 10904,
      "pati": 10905,
      "algorithm": 10906,
      "ful ": 10907,
      "in a ": 10908,
      "ement ": 10909,
      "individu": 10910,
      "self": 10911,
      "y of ": 10912,
      "ma": 10913,
      "expl": 10914,
      "，我": 10915,
      "care ": 10916,
      "way ": 10917,
      "add": 10918,
      "它们": 10919,
      "ents ": 10920,
      "power": 10921,
      "By ": 10922,
      "pu": 10923,
      "writ": 10924,
      "设计": 10925,
      "many ": 10926,
      "ben": 10927,
      "例如": 10928,
      "：\n1. ": 10929,
      "throug": 10930,
      "ly": 10931,
      "ost ": 10932,
      "tic ": 10933,
      "help": 10934,
      "产品": 10935,
      "方法": 10936,
      "Ch": 10937,
      "different ": 10938,
      "因此": 10939,
      "gu": 10940,
      "org": 10941,
      "soci": 10942,
      "建议": 10943,
      "using ": 10944,
      "angu": 10945,
      "reduce ": 10946,
      "ting ": 10947,
      "important ": 10948,
      "health ": 10949,
      "For ": 10950,
      "应该": 10951,
      "underst": 10952,
      "发展": 10953,
      ". A": 10954,
      "iv": 10955,
      "benef": 10956,
      "up": 10957,
      "技术": 10958,
      "requ": 10959,
      "compl": 10960,
      "。在": 10961,
      "effec": 10962,
      "e.\n\n": 10963,
      "mo": 10964,
      "social ": 10965,
      "s or ": 10966,
      "如何": 10967,
      "human ": 10968,
      ", the ": 10969,
      "计算": 10970,
      "信息": 10971,
      "|\n| ": 10972,
      "ount": 10973,
      "adv": 10974,
      "ethical ": 10975,
      "mot": 10976,
      "dr": 10977,
      "其他": 10978,
      "impl": 10979,
      "tri": 10980,
      "co": 10981,
      "alleng": 10982,
      "program": 10983,
      "lif": 10984,
      "生活": 10985,
      "ere are some ": 10986,
      "information ": 10987,
      "technology ": 10988,
      "In ": 10989,
      "ens": 10990,
      "incre": 10991,
      "Over": 10992,
      "prac": 10993,
      "cul": 10994,
      "langu": 10995,
      "ound": 10996,
      "方面": 10997,
      "mon": 10998,
      "iqu": 10999,
      "challeng": 11000,
      "educ": 11001,
      "____": 11002,
      "es, and ": 11003,
      "som": 11004,
      "ignific": 11005,
      "up ": 11006,
      "organ": 11007,
      "sol": 11008,
      "robot": 11009,
      "decis": 11010,
      "energ": 11011,
      "bec": 11012,
      "This ": 11013,
      "学习": 11014,
      "pa": 11015,
      "when ": 11016,
      "更加": 11017,
      "experienc": 11018,
      "工作": 11019,
      "tra": 11020,
      "transp": 11021,
      "用户": 11022,
      "identify ": 11023,
      "been ": 11024,
      "go": 11025,
      "vari": 11026,
      "ive ": 11027,
      "cr": 11028,
      "什么": 11029,
      "？ ": 11030,
      "alu": 11031,
      "ice ": 11032,
      "ew": 11033,
      "ving ": 11034,
      "tern": 11035,
      "。\n4. ": 11036,
      "ary ": 11037,
      "gg": 11038,
      "being ": 11039,
      "aut": 11040,
      "ed by ": 11041,
      "ities ": 11042,
      "Overall": 11043,
      "num": 11044,
      "ty": 11045,
      "ook": 11046,
      "ici": 11047,
      "En": 11048,
      "健康": 11049,
      "activ": 11050,
      "create ": 11051,
      "ed and ": 11052,
      "als ": 11053,
      "support ": 11054,
      "AI-": 11055,
      "mod": 11056,
      "where ": 11057,
      "min": 11058,
      "do ": 11059,
      "use of ": 11060,
      "，而": 11061,
      "tu": 11062,
      "ep ": 11063,
      "了解": 11064,
      "ific ": 11065,
      "coll": 11066,
      "？\n": 11067,
      "ation and ": 11068,
      "into ": 11069,
      "fr": 11070,
      "cor": 11071,
      "是一个": 11072,
      "natur": 11073,
      "sec": 11074,
      "ong ": 11075,
      "i ": 11076,
      "tions ": 11077,
      "example, ": 11078,
      "ations ": 11079,
      "yth": 11080,
      "row": 11081,
      "bre": 11082,
      "train": 11083,
      "ire": 11084,
      "个人": 11085,
      "end ": 11086,
      "stain": 11087,
      "6. ": 11088,
      "dic": 11089,
      "about the ": 11090,
      "AI system": 11091,
      "ose ": 11092,
      "保持": 11093,
      "ell ": 11094,
      "just ": 11095,
      "decision": 11096,
      "'t ": 11097,
      "id ": 11098,
      "over ": 11099,
      "icul": 11100,
      "S ": 11101,
      "过程": 11102,
      "安全": 11103,
      "am ": 11104,
      "med": 11105,
      "cho": 11106,
      "mus": 11107,
      ")\n": 11108,
      "specific ": 11109,
      "sustain": 11110,
      "情况": 11111,
      "s.": 11112,
      "vers": 11113,
      "```": 11114,
      "would ": 11115,
      "indu": 11116,
      "vis": 11117,
      "for the ": 11118,
      "through ": 11119,
      ". It ": 11120,
      "were ": 11121,
      "服务": 11122,
      "智能": 11123,
      "ase ": 11124,
      "I'": 11125,
      "lo": 11126,
      "including ": 11127,
      "For example, ": 11128,
      "人们": 11129,
      "take ": 11130,
      "ort": 11131,
      "while ": 11132,
      "ular ": 11133,
      "e, and ": 11134,
      "do": 11135,
      "ll ": 11136,
      "qual": 11137,
      "us ": 11138,
      "based ": 11139,
      "OS": 11140,
      "游戏": 11141,
      "bus": 11142,
      "文化": 11143,
      "people ": 11144,
      "ish": 11145,
      "had ": 11146,
      "with the ": 11147,
      "emo": 11148,
      "cri": 11149,
      "time ": 11150,
      "development ": 11151,
      "practic": 11152,
      "系统": 11153,
      "impact ": 11154,
      "分析": 11155,
      "注意": 11156,
      "need": 11157,
      "most ": 11158,
      "a fe": 11159,
      "ploy": 11160,
      "A ": 11161,
      "ability ": 11162,
      "之间": 11163,
      "a, ": 11164,
      "能力": 11165,
      "resear": 11166,
      "his ": 11167,
      "，如": 11168,
      "，让": 11169,
      "e: ": 11170,
      "ation, ": 11171,
      "onom": 11172,
      "sible ": 11173,
      "recomm": 11174,
      "sum": 11175,
      "不同的": 11176,
      "stor": 11177,
      "sever": 11178,
      "ber": 11179,
      "analyze ": 11180,
      "pol": 11181,
      "sist": 11182,
      "powered ": 11183,
      "sit": 11184,
      "解决": 11185,
      "mat": 11186,
      "medi": 11187,
      "ood": 11188,
      "MOS": 11189,
      "war": 11190,
      "，包括": 11191,
      "acces": 11192,
      "活动": 11193,
      "这些": 11194,
      "ience ": 11195,
      "guid": 11196,
      "ner": 11197,
      "oft": 11198,
      "确保": 11199,
      "making ": 11200,
      "addres": 11201,
      "实现": 11202,
      "pop": 11203,
      "plan": 11204,
      "high": 11205,
      "organiz": 11206,
      "应用": 11207,
      "invol": 11208,
      "struc": 11209,
      "因为": 11210,
      "AI-powered ": 11211,
      "自然": 11212,
      "社会": 11213,
      "，在": 11214,
      "你的": 11215,
      "fun": 11216,
      ". S": 11217,
      "what ": 11218,
      "ask": 11219,
      "owever": 11220,
      "alized ": 11221,
      "reduc": 11222,
      "对于": 11223,
      "cc": 11224,
      " = ": 11225,
      "car": 11226,
      "ing a ": 11227,
      "promot": 11228,
      "Yes, ": 11229,
      "there ": 11230,
      "a few ": 11231,
      "tex": 11232,
      "s. This ": 11233,
      "issu": 11234,
      "re ": 11235,
      "it is ": 11236,
      "energy ": 11237,
      "each ": 11238,
      "pat": 11239,
      "appro": 11240,
      "care": 11241,
      "fi": 11242,
      "dur": 11243,
      "protec": 11244,
      "tor": 11245,
      ".\n\n2. ": 11246,
      "job": 11247,
      "关系": 11248,
      ".\n\n3. ": 11249,
      "e.": 11250,
      "mach": 11251,
      "f ": 11252,
      "es in ": 11253,
      "betwe": 11254,
      "design": 11255,
      "ignificant ": 11256,
      "需求": 11257,
      "skill": 11258,
      "sul": 11259,
      "ion ": 11260,
      "ture": 11261,
      "resourc": 11262,
      "busin": 11263,
      "gl": 11264,
      "Overall, ": 11265,
      "great ": 11266,
      "ational ": 11267,
      "customer ": 11268,
      "clim": 11269,
      "between ": 11270,
      "--------": 11271,
      "How ": 11272,
      "考虑": 11273,
      "质量": 11274,
      "her ": 11275,
      "ord": 11276,
      "ook ": 11277,
      "att": 11278,
      "我们的": 11279,
      "gener": 11280,
      "ditional ": 11281,
      "没有": 11282,
      "家庭": 11283,
      "publ": 11284,
      "valu": 11285,
      "ativ": 11286,
      "具有": 11287,
      "同时": 11288,
      "art": 11289,
      "ature": 11290,
      "several ": 11291,
      "buil": 11292,
      "col": 11293,
      "fri": 11294,
      "healthcare ": 11295,
      ".\n\n4. ": 11296,
      "语言": 11297,
      ". These ": 11298,
      "市场": 11299,
      "art ": 11300,
      "管理": 11301,
      "disc": 11302,
      "with": 11303,
      "人类": 11304,
      "身体": 11305,
      "An": 11306,
      "rang": 11307,
      "natural ": 11308,
      "fam": 11309,
      "mad": 11310,
      "You": 11311,
      "mem": 11312,
      "000": 11313,
      "owever, ": 11314,
      "consid": 11315,
      "accur": 11316,
      "内容": 11317,
      " |\n| ": 11318,
      "predic": 11319,
      "as a ": 11320,
      "ast ": 11321,
      "孩子": 11322,
      "ld": 11323,
      ". They ": 11324,
      "后，": 11325,
      "ed in ": 11326,
      "fer": 11327,
      "with a ": 11328,
      "是一种": 11329,
      "treat": 11330,
      "eli": 11331,
      "typ": 11332,
      "之一": 11333,
      "s the ": 11334,
      "更多": 11335,
      "。\n5. ": 11336,
      "partic": 11337,
      "water ": 11338,
      "程序": 11339,
      "音乐": 11340,
      "pattern": 11341,
      "St": 11342,
      "process": 11343,
      "abl": 11344,
      "manag": 11345,
      "MOSS ": 11346,
      "prof": 11347,
      "ally, ": 11348,
      "st ": 11349,
      "cur": 11350,
      "代码": 11351,
      "Con": 11352,
      "主要": 11353,
      "s of the ": 11354,
      "ity and ": 11355,
      "通常": 11356,
      "处理": 11357,
      "19": 11358,
      "read": 11359,
      "tool": 11360,
      "concer": 11361,
      "lead ": 11362,
      "stri": 11363,
      "外，": 11364,
      "文本": 11365,
      "mark": 11366,
      "目标": 11367,
      "he ": 11368,
      "societ": 11369,
      "foc": 11370,
      "aff": 11371,
      "hol": 11372,
      "城市": 11373,
      "providing ": 11374,
      "har": 11375,
      "。\n总": 11376,
      "适合": 11377,
      "一种": 11378,
      "appl": 11379,
      "inu": 11380,
      "emotion": 11381,
      "thin": 11382,
      "ation of ": 11383,
      "s? ": 11384,
      "ize ": 11385,
      "ber ": 11386,
      "，它": 11387,
      "servic": 11388,
      "材料": 11389,
      "ication": 11390,
      "重要的": 11391,
      "lin": 11392,
      "play": 11393,
      "ame ": 11394,
      "人的": 11395,
      "hap": 11396,
      "，也": 11397,
      "情感": 11398,
      "than ": 11399,
      "human": 11400,
      "allow": 11401,
      "ogn": 11402,
      "客户": 11403,
      "不断": 11404,
      "tain": 11405,
      "On": 11406,
      "it's ": 11407,
      "form ": 11408,
      "ship": 11409,
      "是否": 11410,
      ", which ": 11411,
      "abor": 11412,
      "spe": 11413,
      "personal ": 11414,
      "able to ": 11415,
      "ish ": 11416,
      "regul": 11417,
      "t's ": 11418,
      "ing that ": 11419,
      "examples of ": 11420,
      "mental health ": 11421,
      "fut": 11422,
      "mer": 11423,
      "成为": 11424,
      "sti": 11425,
      "大的": 11426,
      "sm": 11427,
      "sugg": 11428,
      "there are ": 11429,
      "succ": 11430,
      "ke": 11431,
      "制作": 11432,
      "back ": 11433,
      "a l": 11434,
      "增加": 11435,
      "print": 11436,
      "ven": 11437,
      "加入": 11438,
      "resul": 11439,
      "saf": 11440,
      "What ": 11441,
      "ca": 11442,
      "的人": 11443,
      "portun": 11444,
      "king ": 11445,
      "find ": 11446,
      "。如果": 11447,
      "you can ": 11448,
      "，例如": 11449,
      "the potential ": 11450,
      "1.": 11451,
      "或者": 11452,
      "运动": 11453,
      "sion ": 11454,
      "develop ": 11455,
      "lead": 11456,
      "品牌": 11457,
      "opportun": 11458,
      "sl": 11459,
      "food ": 11460,
      "climate ": 11461,
      "cle": 11462,
      "action": 11463,
      "Tr": 11464,
      "so": 11465,
      "continu": 11466,
      "itive ": 11467,
      "避免": 11468,
[...]
